#include "model_pak.h"

unsigned char model_tflite[] = {
  0x1c, 0x00, 0x00, 0x00, 0x54, 0x46, 0x4c, 0x33, 0x14, 0x00, 0x20, 0x00,
  0x1c, 0x00, 0x18, 0x00, 0x14, 0x00, 0x10, 0x00, 0x0c, 0x00, 0x00, 0x00,
  0x08, 0x00, 0x04, 0x00, 0x14, 0x00, 0x00, 0x00, 0x1c, 0x00, 0x00, 0x00,
  0x98, 0x00, 0x00, 0x00, 0xf0, 0x00, 0x00, 0x00, 0x24, 0x2f, 0x00, 0x00,
  0x34, 0x2f, 0x00, 0x00, 0xe4, 0x34, 0x00, 0x00, 0x03, 0x00, 0x00, 0x00,
  0x01, 0x00, 0x00, 0x00, 0x10, 0x00, 0x00, 0x00, 0x00, 0x00, 0x0a, 0x00,
  0x10, 0x00, 0x0c, 0x00, 0x08, 0x00, 0x04, 0x00, 0x0a, 0x00, 0x00, 0x00,
  0x0c, 0x00, 0x00, 0x00, 0x1c, 0x00, 0x00, 0x00, 0x3c, 0x00, 0x00, 0x00,
  0x0f, 0x00, 0x00, 0x00, 0x73, 0x65, 0x72, 0x76, 0x69, 0x6e, 0x67, 0x5f,
  0x64, 0x65, 0x66, 0x61, 0x75, 0x6c, 0x74, 0x00, 0x01, 0x00, 0x00, 0x00,
  0x04, 0x00, 0x00, 0x00, 0x90, 0xff, 0xff, 0xff, 0x0a, 0x00, 0x00, 0x00,
  0x04, 0x00, 0x00, 0x00, 0x08, 0x00, 0x00, 0x00, 0x6f, 0x75, 0x74, 0x70,
  0x75, 0x74, 0x5f, 0x30, 0x00, 0x00, 0x00, 0x00, 0x01, 0x00, 0x00, 0x00,
  0x04, 0x00, 0x00, 0x00, 0xc2, 0xd0, 0xff, 0xff, 0x04, 0x00, 0x00, 0x00,
  0x0d, 0x00, 0x00, 0x00, 0x69, 0x6e, 0x70, 0x75, 0x74, 0x5f, 0x6c, 0x61,
  0x79, 0x65, 0x72, 0x5f, 0x36, 0x00, 0x00, 0x00, 0x02, 0x00, 0x00, 0x00,
  0x34, 0x00, 0x00, 0x00, 0x04, 0x00, 0x00, 0x00, 0xdc, 0xff, 0xff, 0xff,
  0x0d, 0x00, 0x00, 0x00, 0x04, 0x00, 0x00, 0x00, 0x13, 0x00, 0x00, 0x00,
  0x43, 0x4f, 0x4e, 0x56, 0x45, 0x52, 0x53, 0x49, 0x4f, 0x4e, 0x5f, 0x4d,
  0x45, 0x54, 0x41, 0x44, 0x41, 0x54, 0x41, 0x00, 0x08, 0x00, 0x0c, 0x00,
  0x08, 0x00, 0x04, 0x00, 0x08, 0x00, 0x00, 0x00, 0x0c, 0x00, 0x00, 0x00,
  0x04, 0x00, 0x00, 0x00, 0x13, 0x00, 0x00, 0x00, 0x6d, 0x69, 0x6e, 0x5f,
  0x72, 0x75, 0x6e, 0x74, 0x69, 0x6d, 0x65, 0x5f, 0x76, 0x65, 0x72, 0x73,
  0x69, 0x6f, 0x6e, 0x00, 0x0e, 0x00, 0x00, 0x00, 0x30, 0x2e, 0x00, 0x00,
  0x28, 0x2e, 0x00, 0x00, 0x98, 0x2b, 0x00, 0x00, 0x88, 0x0b, 0x00, 0x00,
  0x64, 0x0b, 0x00, 0x00, 0xd4, 0x0a, 0x00, 0x00, 0xc4, 0x09, 0x00, 0x00,
  0xb4, 0x00, 0x00, 0x00, 0xac, 0x00, 0x00, 0x00, 0xa4, 0x00, 0x00, 0x00,
  0x9c, 0x00, 0x00, 0x00, 0x94, 0x00, 0x00, 0x00, 0x74, 0x00, 0x00, 0x00,
  0x04, 0x00, 0x00, 0x00, 0x76, 0xd1, 0xff, 0xff, 0x04, 0x00, 0x00, 0x00,
  0x60, 0x00, 0x00, 0x00, 0x10, 0x00, 0x00, 0x00, 0x00, 0x00, 0x00, 0x00,
  0x08, 0x00, 0x0e, 0x00, 0x08, 0x00, 0x04, 0x00, 0x08, 0x00, 0x00, 0x00,
  0x10, 0x00, 0x00, 0x00, 0x24, 0x00, 0x00, 0x00, 0x00, 0x00, 0x06, 0x00,
  0x08, 0x00, 0x04, 0x00, 0x06, 0x00, 0x00, 0x00, 0x04, 0x00, 0x00, 0x00,
  0x00, 0x00, 0x00, 0x00, 0x0c, 0x00, 0x18, 0x00, 0x14, 0x00, 0x10, 0x00,
  0x0c, 0x00, 0x04, 0x00, 0x0c, 0x00, 0x00, 0x00, 0x81, 0x43, 0x35, 0x14,
  0x6d, 0xf1, 0x8d, 0x35, 0x02, 0x00, 0x00, 0x00, 0x02, 0x00, 0x00, 0x00,
  0x04, 0x00, 0x00, 0x00, 0x06, 0x00, 0x00, 0x00, 0x32, 0x2e, 0x31, 0x37,
  0x2e, 0x30, 0x00, 0x00, 0xe2, 0xd1, 0xff, 0xff, 0x04, 0x00, 0x00, 0x00,
  0x10, 0x00, 0x00, 0x00, 0x31, 0x2e, 0x35, 0x2e, 0x30, 0x00, 0x00, 0x00,
  0x00, 0x00, 0x00, 0x00, 0x00, 0x00, 0x00, 0x00, 0xfc, 0xcc, 0xff, 0xff,
  0x00, 0xcd, 0xff, 0xff, 0x04, 0xcd, 0xff, 0xff, 0x08, 0xcd, 0xff, 0xff,
  0x0e, 0xd2, 0xff, 0xff, 0x04, 0x00, 0x00, 0x00, 0x00, 0x09, 0x00, 0x00,
  0x26, 0x69, 0x63, 0x3f, 0x91, 0x9e, 0x2d, 0xbe, 0xb8, 0x95, 0xda, 0x3e,
  0x2c, 0x31, 0xb9, 0x3e, 0x4a, 0x29, 0xa6, 0xbc, 0x85, 0xee, 0x93, 0xbe,
  0x91, 0x6f, 0x9f, 0x3e, 0xd8, 0xe8, 0xfc, 0xbd, 0xf5, 0xa2, 0xe6, 0x3e,
  0x41, 0xd0, 0xa3, 0xbc, 0xf3, 0x46, 0x06, 0x3e, 0xb0, 0xef, 0xc7, 0x3e,
  0xb3, 0x9b, 0xeb, 0xbc, 0xd5, 0xc9, 0xa0, 0x3c, 0x53, 0x18, 0x13, 0x3c,
  0x3f, 0x08, 0xaa, 0x3f, 0xf7, 0xf3, 0x0e, 0xc0, 0x3a, 0xb5, 0x2b, 0xbf,
  0x84, 0xbc, 0xe5, 0x3e, 0x27, 0xaa, 0xad, 0xbc, 0xb5, 0xd3, 0xd5, 0x3e,
  0xfc, 0xa9, 0xc8, 0x3a, 0x36, 0x41, 0xd4, 0x3e, 0x0f, 0x04, 0x76, 0x3e,
  0x19, 0x47, 0x17, 0xbe, 0x2c, 0x73, 0x15, 0xbf, 0x26, 0x5d, 0xa4, 0xbe,
  0x9f, 0xfe, 0xb3, 0x3e, 0xfd, 0xd9, 0x89, 0x3f, 0xa1, 0x81, 0xda, 0xbe,
  0xed, 0x88, 0x04, 0xbd, 0x29, 0x3f, 0x1d, 0xbe, 0xf9, 0x0f, 0xef, 0xbd,
  0x6b, 0x1c, 0x3c, 0xbf, 0x49, 0x6b, 0xd4, 0xbe, 0x94, 0xbd, 0xf3, 0x3d,
  0x52, 0x19, 0x01, 0x3f, 0x6e, 0x93, 0x96, 0xbe, 0x13, 0x3f, 0xdc, 0xbd,
  0xc6, 0x01, 0xf3, 0xbc, 0x5c, 0x05, 0xca, 0x3f, 0x9f, 0x7a, 0x13, 0xbe,
  0x24, 0xbd, 0x0e, 0xbf, 0x4a, 0x14, 0x22, 0xbf, 0xb4, 0xb7, 0x9a, 0xbe,
  0xe9, 0x61, 0xbe, 0xbd, 0x65, 0xa8, 0x8d, 0x3f, 0xa2, 0xb9, 0x19, 0x3f,
  0x20, 0x4c, 0xab, 0x3d, 0x6d, 0xa5, 0x64, 0x3e, 0x2b, 0xe9, 0x1b, 0xbe,
  0xca, 0xbc, 0x78, 0x3e, 0x5a, 0xc9, 0x20, 0xc0, 0x8c, 0x04, 0x36, 0xbf,
  0x44, 0x64, 0x1f, 0x3c, 0xd9, 0xf3, 0xdc, 0x3e, 0x9c, 0xc2, 0x9a, 0xbe,
  0x0e, 0x3a, 0xe3, 0x3e, 0x96, 0x8f, 0x79, 0x3f, 0x5b, 0x99, 0x30, 0xbf,
  0xd7, 0x1c, 0x08, 0xbf, 0x4d, 0xdc, 0x9b, 0xbe, 0x2b, 0xa2, 0xef, 0xbe,
  0x5b, 0x7e, 0x93, 0xbe, 0xc5, 0x7c, 0x8c, 0x3d, 0x9e, 0xa0, 0x0a, 0x3f,
  0x73, 0x19, 0x95, 0xbd, 0x43, 0x6a, 0x8c, 0x3d, 0x8e, 0x89, 0xe1, 0x3d,
  0x0e, 0x8b, 0x91, 0x40, 0x7b, 0xb2, 0xb6, 0xc0, 0x7f, 0x00, 0xc0, 0x3b,
  0xdf, 0xd3, 0x3f, 0x3e, 0x0f, 0x6f, 0x0d, 0xbf, 0xfc, 0xa9, 0x81, 0x3e,
  0x88, 0x14, 0x2a, 0xbb, 0x10, 0x72, 0x65, 0x3e, 0xe0, 0xab, 0xe8, 0x3d,
  0xc0, 0xd0, 0x9e, 0x3f, 0x63, 0x99, 0x0d, 0xc0, 0xed, 0xfc, 0x3f, 0xbf,
  0x48, 0x22, 0x1e, 0x3d, 0xc2, 0x24, 0x5d, 0x3f, 0x0b, 0x60, 0xed, 0x3e,
  0xc4, 0xb6, 0x02, 0x3e, 0x82, 0xf4, 0x68, 0xbe, 0x17, 0x6a, 0x7e, 0x3d,
  0x9f, 0xee, 0x48, 0x40, 0xc5, 0xed, 0x1c, 0xbf, 0x71, 0xb6, 0x11, 0x3d,
  0xaa, 0x15, 0x21, 0x3f, 0xa2, 0xe7, 0x8b, 0x3f, 0xad, 0x0d, 0xff, 0xbd,
  0x1c, 0x84, 0x10, 0x3e, 0x9f, 0xdc, 0x8a, 0xbe, 0xda, 0x0a, 0x24, 0x3e,
  0x09, 0x0a, 0xfb, 0x3f, 0xb8, 0x4b, 0xf9, 0xbf, 0x53, 0xa3, 0x4f, 0xbf,
  0x30, 0xe5, 0xdb, 0xbe, 0x2c, 0x11, 0x5d, 0xbe, 0x47, 0x2b, 0x20, 0x3e,
  0x3f, 0x30, 0x9b, 0x3e, 0x98, 0xa3, 0xf5, 0xbd, 0x0d, 0xd0, 0x35, 0xbe,
  0x1b, 0x0e, 0x4e, 0xbf, 0xca, 0x40, 0x1f, 0x40, 0x9b, 0x2d, 0x1a, 0xbe,
  0x85, 0x51, 0x47, 0x3f, 0x6d, 0x13, 0xed, 0x3d, 0xdb, 0xd4, 0xf8, 0x3b,
  0xf1, 0x20, 0x0e, 0x3d, 0x13, 0x60, 0x18, 0xbe, 0x91, 0x10, 0xd2, 0x3f,
  0xc2, 0xbc, 0x40, 0xbe, 0x0b, 0x0c, 0x31, 0xc0, 0x01, 0x05, 0x97, 0xbd,
  0x43, 0x5e, 0xc4, 0x3d, 0x96, 0x03, 0x6a, 0xbd, 0x05, 0x8b, 0x0f, 0x3f,
  0xab, 0x2d, 0x22, 0x3f, 0xf8, 0x65, 0x28, 0x3f, 0xaa, 0x54, 0x89, 0xba,
  0x80, 0x02, 0xc2, 0x3f, 0xc5, 0x9e, 0x8d, 0x3f, 0xcc, 0x63, 0x76, 0x3d,
  0xf8, 0x3c, 0x7b, 0x3f, 0xfc, 0x14, 0x99, 0xbe, 0xd2, 0x94, 0x30, 0xbf,
  0x88, 0x0e, 0x9f, 0xbd, 0xe3, 0x7c, 0xdc, 0xbe, 0x45, 0xe0, 0xf4, 0x3e,
  0x31, 0x28, 0x8f, 0xbf, 0x09, 0xdd, 0xaa, 0xbe, 0x69, 0x0f, 0xe3, 0xbd,
  0x1a, 0x29, 0x6c, 0xbc, 0xdf, 0xca, 0x90, 0xbe, 0xed, 0x53, 0x26, 0x3f,
  0x9f, 0x02, 0x05, 0x3e, 0x3d, 0x6e, 0x38, 0x3e, 0x98, 0x61, 0xe0, 0x3a,
  0x59, 0xbc, 0x8c, 0x3e, 0x36, 0xee, 0x38, 0xc0, 0xcd, 0xd2, 0x5f, 0xbf,
  0xfb, 0x4d, 0xb9, 0xbd, 0xae, 0xb7, 0xdf, 0x3d, 0x8c, 0xff, 0x22, 0x3f,
  0x19, 0xfb, 0xa5, 0x3d, 0x4a, 0x34, 0x54, 0x3e, 0x24, 0xd0, 0x66, 0xbd,
  0xe4, 0x93, 0x3a, 0x40, 0x76, 0x89, 0x28, 0x3f, 0x74, 0xe2, 0x6c, 0x3e,
  0xc8, 0x43, 0x1c, 0x3c, 0xa4, 0x16, 0xad, 0xbd, 0xdf, 0xf3, 0xde, 0x3d,
  0x4e, 0x01, 0xb8, 0x3f, 0xbb, 0x45, 0x0e, 0xbf, 0xca, 0x2e, 0xa4, 0x3d,
  0x6e, 0xd4, 0x24, 0xbf, 0x1f, 0xe0, 0x33, 0xbf, 0xbb, 0x52, 0x7b, 0x3c,
  0x22, 0x3a, 0xd1, 0x3d, 0xef, 0xb5, 0xc7, 0xbe, 0x16, 0x51, 0x05, 0xbf,
  0xea, 0xa4, 0xf2, 0xbf, 0x17, 0x5d, 0xea, 0xbe, 0xea, 0xb7, 0x01, 0x3d,
  0xc3, 0x7f, 0xe6, 0xbf, 0x43, 0xb2, 0xfd, 0xbf, 0x7e, 0x0c, 0xa2, 0xbc,
  0x8b, 0x72, 0x05, 0xbf, 0xa5, 0xe8, 0xcf, 0xbe, 0x27, 0xff, 0xb0, 0x3d,
  0x62, 0xc4, 0x93, 0x3f, 0x2a, 0x36, 0xad, 0xbe, 0x7e, 0x69, 0xb7, 0xbe,
  0x8b, 0x48, 0xf1, 0xbf, 0x03, 0xf2, 0xef, 0x3f, 0xa0, 0xef, 0x9b, 0xbc,
  0xd2, 0xfa, 0x34, 0xbe, 0xed, 0x7d, 0x2e, 0x3f, 0x20, 0xd8, 0xad, 0xbe,
  0x8d, 0x50, 0xf4, 0x3e, 0x09, 0xfa, 0x94, 0x3c, 0x26, 0x89, 0x87, 0xbe,
  0xdf, 0xdb, 0xaa, 0xc0, 0x86, 0xf4, 0x23, 0x40, 0x87, 0x49, 0x97, 0xbd,
  0x12, 0xe9, 0xbf, 0xbe, 0xcb, 0x01, 0xc9, 0xbc, 0x05, 0x0b, 0xaa, 0x3d,
  0xab, 0x33, 0x54, 0xbf, 0x4e, 0x6d, 0xfe, 0xbd, 0x38, 0xa3, 0x04, 0x3f,
  0x45, 0xd3, 0xc0, 0xbe, 0xe7, 0x38, 0x67, 0xbf, 0x2c, 0xde, 0xee, 0x3e,
  0x90, 0x3c, 0xd0, 0xbe, 0x86, 0x70, 0x37, 0xbe, 0x60, 0x1e, 0x80, 0x3e,
  0x6e, 0x6d, 0x8d, 0x3d, 0x4c, 0x52, 0x7b, 0xbe, 0x34, 0xe6, 0x70, 0xb9,
  0xb3, 0xeb, 0x18, 0x40, 0x47, 0xc1, 0x39, 0xbe, 0xe1, 0x91, 0x2c, 0x3f,
  0xfd, 0x0b, 0x7c, 0x3e, 0x89, 0x33, 0xc9, 0xbe, 0xa6, 0x14, 0x04, 0xbf,
  0x6e, 0x53, 0x59, 0x3f, 0xb2, 0x05, 0x6a, 0xbe, 0x4f, 0x9b, 0xd1, 0x3e,
  0xb6, 0x6a, 0x91, 0xbe, 0x23, 0x96, 0x80, 0xbf, 0x34, 0x92, 0xec, 0xbe,
  0xa0, 0x41, 0xac, 0xbf, 0x4f, 0xca, 0x51, 0xbe, 0x90, 0xab, 0x87, 0xbc,
  0xeb, 0xbc, 0x10, 0xbe, 0xc9, 0x79, 0xce, 0xba, 0x7d, 0x14, 0x9e, 0xbf,
  0x48, 0x0b, 0xa4, 0xbf, 0x4c, 0x1b, 0xb5, 0xbd, 0x00, 0xb6, 0x00, 0xbf,
  0xa1, 0x43, 0x04, 0xbf, 0x11, 0x70, 0x7a, 0xbe, 0x18, 0xc5, 0x04, 0xbf,
  0xc4, 0x14, 0x0d, 0x3e, 0x9f, 0x57, 0x9e, 0xbd, 0xbb, 0x39, 0x86, 0xbd,
  0xa1, 0x36, 0x4a, 0x3f, 0xb3, 0x1b, 0xbe, 0xbe, 0xb2, 0x9e, 0x23, 0xbf,
  0x49, 0x15, 0x18, 0xbe, 0xc8, 0x8d, 0x84, 0xbe, 0xd4, 0x12, 0x00, 0x3f,
  0x61, 0x34, 0x0d, 0xbf, 0x99, 0x59, 0x42, 0x3f, 0xe0, 0x0e, 0xcd, 0x3e,
  0x04, 0xee, 0x2b, 0xbf, 0x39, 0xf0, 0xb9, 0x3e, 0x2f, 0xf2, 0xcb, 0x3e,
  0xed, 0x59, 0xa9, 0x3f, 0xcd, 0x98, 0xb1, 0x3c, 0x35, 0xaa, 0x2b, 0x3e,
  0xe2, 0x89, 0xf1, 0x3d, 0x07, 0x47, 0xfa, 0x3e, 0xd8, 0xc3, 0x8d, 0xbd,
  0x40, 0x44, 0x02, 0xbf, 0x11, 0x95, 0xe2, 0x3f, 0x18, 0x52, 0x4d, 0xbe,
  0x23, 0xfd, 0x47, 0x3e, 0x40, 0xf0, 0x99, 0x3e, 0x56, 0x3a, 0x1e, 0xbf,
  0x19, 0x15, 0x57, 0x3f, 0xca, 0x7b, 0x1e, 0xbf, 0x13, 0x2b, 0x16, 0x3e,
  0xb4, 0xdb, 0x0e, 0xc0, 0x78, 0xde, 0xf5, 0xbf, 0xc4, 0x11, 0x8a, 0xbe,
  0x37, 0x1b, 0x0f, 0xbf, 0x78, 0x2a, 0x4b, 0x3c, 0xfb, 0x9c, 0xc9, 0xbe,
  0x5d, 0xb0, 0xff, 0x3c, 0x62, 0x84, 0x30, 0xbe, 0x50, 0x83, 0xf7, 0xbf,
  0x5c, 0x77, 0xb5, 0x3f, 0xbc, 0x2e, 0x45, 0xbf, 0x98, 0x8c, 0x67, 0xbe,
  0xfa, 0x37, 0x3f, 0xbf, 0xbb, 0xac, 0x36, 0xbe, 0x85, 0x0f, 0x89, 0x3d,
  0xe4, 0x57, 0x93, 0xbe, 0x3a, 0xf4, 0x48, 0x3e, 0x30, 0xbd, 0x6b, 0x3c,
  0x5d, 0x8a, 0xe3, 0xbf, 0x7b, 0x8f, 0xb2, 0x3f, 0x9c, 0x1c, 0x83, 0x3e,
  0x58, 0x91, 0x84, 0x3f, 0xee, 0xc1, 0xe7, 0xbd, 0x64, 0x6b, 0xbb, 0x3e,
  0x66, 0xf3, 0x96, 0xbe, 0xe2, 0x0c, 0x38, 0x3f, 0x75, 0xaa, 0x2a, 0xbf,
  0xa0, 0x5c, 0x04, 0xc0, 0x33, 0xda, 0xa9, 0xbc, 0xbf, 0x63, 0xcc, 0x3e,
  0x8f, 0x71, 0xec, 0xbe, 0xfc, 0x64, 0x72, 0xbe, 0x58, 0x18, 0xa5, 0x3e,
  0x88, 0x83, 0x05, 0xbd, 0x4f, 0xc1, 0xed, 0xbe, 0xd6, 0x96, 0xa4, 0x3d,
  0x3b, 0x86, 0x13, 0xc0, 0x6d, 0xb8, 0x9f, 0xbf, 0x6e, 0xad, 0x96, 0xbe,
  0xe4, 0xe6, 0x61, 0xbf, 0xa2, 0x59, 0x4d, 0xbe, 0x62, 0x46, 0x67, 0x3d,
  0x3a, 0x6d, 0x11, 0xbf, 0x6e, 0xf1, 0xae, 0xbf, 0x27, 0xd6, 0xe5, 0xbd,
  0xdc, 0xe1, 0x9c, 0x3f, 0xa2, 0xbe, 0x16, 0x40, 0x0a, 0xaf, 0x8d, 0xbe,
  0x9a, 0x53, 0xda, 0x3d, 0x94, 0x6a, 0x88, 0xbf, 0xcc, 0x77, 0xcb, 0xbe,
  0x34, 0x41, 0x13, 0xba, 0xdf, 0x1d, 0xeb, 0xbd, 0xb7, 0x41, 0x15, 0xbd,
  0x67, 0x15, 0x95, 0x3f, 0x77, 0x00, 0x14, 0x3f, 0xa1, 0x5c, 0x0f, 0x3f,
  0xf2, 0xcc, 0x12, 0xbf, 0xd4, 0xc9, 0xe9, 0x3d, 0x46, 0x06, 0x02, 0x3e,
  0x52, 0x42, 0xac, 0x3d, 0x0a, 0x80, 0x81, 0x3f, 0x65, 0x15, 0x0a, 0x40,
  0xe9, 0xaf, 0x34, 0xbf, 0xfb, 0x9c, 0xa9, 0x3f, 0xeb, 0xad, 0x9f, 0x3d,
  0x40, 0x41, 0x8e, 0xbd, 0x09, 0x7c, 0x8e, 0x3f, 0xdb, 0xcd, 0x01, 0x3e,
  0x4d, 0x46, 0x2b, 0x3f, 0x43, 0x55, 0x34, 0x3d, 0x6c, 0xdb, 0x59, 0x3c,
  0x7c, 0xd5, 0x10, 0x40, 0xfe, 0x32, 0x26, 0x40, 0x38, 0x7e, 0x2d, 0xbd,
  0x1b, 0x78, 0x59, 0x3d, 0x83, 0xf2, 0x34, 0xbf, 0x26, 0x04, 0xd9, 0xbe,
  0x44, 0x25, 0x0c, 0xbd, 0xe4, 0xbc, 0x46, 0x3d, 0xcc, 0x05, 0xab, 0x3d,
  0x36, 0xdc, 0x71, 0x3f, 0x5b, 0xa8, 0x1a, 0xbf, 0x38, 0xce, 0xac, 0x3e,
  0x3b, 0x54, 0x32, 0x3e, 0x2a, 0x7d, 0xcf, 0xbe, 0x20, 0x96, 0x86, 0xbd,
  0x5b, 0xe4, 0x82, 0xbc, 0xa6, 0x8a, 0xe4, 0x3d, 0x05, 0x29, 0x29, 0x3f,
  0xc1, 0xa9, 0x76, 0x40, 0x4c, 0x2c, 0xec, 0x3e, 0x97, 0xe1, 0x98, 0xbd,
  0xe1, 0xad, 0x27, 0xbe, 0xce, 0xf5, 0x99, 0xbe, 0x1f, 0x54, 0x71, 0x3e,
  0x49, 0x2d, 0x25, 0x3f, 0x3f, 0x8a, 0x12, 0x3f, 0x33, 0xa0, 0xf2, 0x3d,
  0xd9, 0x47, 0xaf, 0xc0, 0x30, 0x20, 0xd3, 0xbe, 0x94, 0x89, 0x8b, 0x3e,
  0xd1, 0xdb, 0x8a, 0xbe, 0x50, 0x01, 0x87, 0xbe, 0x41, 0x47, 0x58, 0xbf,
  0xb8, 0xbe, 0xd3, 0x3e, 0x10, 0xa7, 0xfe, 0xbe, 0xba, 0xe9, 0xde, 0xbe,
  0x48, 0xfb, 0x92, 0xbf, 0x5a, 0xbf, 0x01, 0xbe, 0x92, 0x24, 0x21, 0xbf,
  0xa8, 0xdf, 0x55, 0xbf, 0x06, 0xcb, 0x8d, 0xbe, 0xf8, 0xe6, 0xb9, 0xbe,
  0x65, 0x22, 0x83, 0xbe, 0x4e, 0xd9, 0x52, 0xbd, 0x59, 0xa0, 0x8e, 0xbe,
  0xb7, 0xa9, 0xab, 0xbf, 0x33, 0x32, 0xdd, 0x3e, 0x51, 0xf8, 0x96, 0xbe,
  0x73, 0x9b, 0xb6, 0xbf, 0xfa, 0xce, 0x63, 0x3d, 0x60, 0xec, 0x41, 0xbe,
  0x76, 0xb6, 0xbc, 0xbc, 0x1d, 0x5a, 0x7a, 0x3c, 0xba, 0x70, 0x3a, 0x3d,
  0xb0, 0x6e, 0x34, 0x3e, 0xf2, 0x21, 0xf1, 0xbf, 0xf2, 0xa6, 0x95, 0x3e,
  0x7a, 0x04, 0x00, 0x3f, 0x06, 0x74, 0x12, 0xbf, 0x3c, 0x61, 0x05, 0x3f,
  0xe0, 0x1a, 0x05, 0x3e, 0xbc, 0xcf, 0x31, 0x3e, 0x6b, 0x2a, 0x00, 0x3f,
  0x74, 0x8e, 0xd4, 0xbf, 0x0a, 0x07, 0x37, 0x40, 0x66, 0xa7, 0xaf, 0xbe,
  0x69, 0xd1, 0x56, 0xbf, 0x55, 0xfc, 0x0e, 0x3d, 0x74, 0xc6, 0x44, 0x3e,
  0x80, 0x3a, 0xa1, 0xbd, 0xcc, 0xaa, 0xb9, 0x3f, 0x0e, 0xe9, 0x0d, 0xbe,
  0x33, 0x80, 0xec, 0xbf, 0x8f, 0x34, 0xd9, 0x3f, 0xd7, 0x86, 0x86, 0xbc,
  0x9c, 0xc5, 0x0c, 0x3e, 0xa6, 0xef, 0x73, 0xbe, 0x2b, 0x0e, 0x2a, 0xbf,
  0xb6, 0x82, 0xc1, 0x3e, 0xbc, 0x2d, 0x8d, 0x3e, 0xba, 0xca, 0x36, 0xbe,
  0x9d, 0x0d, 0x42, 0xbf, 0xe3, 0x91, 0xed, 0xbe, 0xa6, 0xe2, 0x0f, 0xbf,
  0x0b, 0xc0, 0x8a, 0x3b, 0x02, 0x79, 0xef, 0x3d, 0x4f, 0x56, 0x24, 0x3f,
  0xd0, 0x7b, 0x10, 0xbf, 0xc0, 0x2e, 0xed, 0x3e, 0x38, 0x3f, 0xba, 0xbd,
  0xbb, 0x21, 0x18, 0x3e, 0xb7, 0xb8, 0x40, 0x3f, 0xe6, 0x2d, 0xcf, 0x3e,
  0x21, 0xba, 0x6d, 0x3d, 0xa0, 0x07, 0x83, 0x3e, 0x7e, 0xf0, 0x39, 0x3f,
  0x9d, 0xb4, 0x98, 0x3e, 0xc2, 0xd6, 0x8c, 0xbe, 0xe4, 0x96, 0x9a, 0xbd,
  0xe1, 0xd6, 0x8f, 0x40, 0xee, 0x01, 0xc6, 0x3f, 0xd1, 0x53, 0x08, 0x3e,
  0x05, 0x5e, 0xb2, 0xbe, 0xf3, 0x68, 0x1c, 0xbf, 0x3b, 0x2f, 0xdb, 0xbd,
  0x58, 0x2d, 0xd4, 0xb8, 0xe3, 0x46, 0x96, 0xbf, 0x00, 0x12, 0x47, 0xbe,
  0x71, 0xc9, 0xf4, 0xbe, 0xd5, 0x00, 0xba, 0x3c, 0xb6, 0xd9, 0xf3, 0xbe,
  0xe8, 0xd1, 0xc3, 0xbd, 0x1e, 0x7d, 0x7c, 0x3e, 0xe8, 0x85, 0x7a, 0xbe,
  0x04, 0xa4, 0xb8, 0x3e, 0xb2, 0x9a, 0x89, 0x3e, 0x28, 0x55, 0x46, 0xbf,
  0x01, 0x4f, 0x99, 0x3f, 0xeb, 0x98, 0x84, 0xbf, 0x74, 0x4c, 0x0e, 0xbe,
  0x1e, 0x21, 0x7b, 0x3d, 0x50, 0xce, 0x2c, 0xbf, 0xe8, 0xe9, 0xb7, 0xbe,
  0x26, 0xd0, 0x00, 0xbe, 0xab, 0x19, 0xc0, 0x3e, 0xbb, 0x63, 0xaa, 0x3e,
  0xfd, 0x9a, 0x4e, 0x3e, 0x03, 0x70, 0xa9, 0x3f, 0x9f, 0x84, 0xb6, 0x3e,
  0xda, 0xa4, 0xc5, 0x3d, 0x45, 0x23, 0x0b, 0xbf, 0x97, 0x98, 0x32, 0x3f,
  0x6c, 0x91, 0xb7, 0xbe, 0x8f, 0xad, 0x18, 0x3e, 0x89, 0xf2, 0x3f, 0xbd,
  0x8f, 0x65, 0x4b, 0xc0, 0xda, 0x38, 0x94, 0x40, 0xfa, 0x49, 0xbe, 0xbe,
  0x90, 0x3f, 0x03, 0xbe, 0x62, 0xaf, 0x94, 0x3f, 0x40, 0xf3, 0x81, 0xbd,
  0xe4, 0x31, 0x64, 0xbf, 0xe5, 0x17, 0xae, 0xbf, 0x68, 0x9f, 0xc8, 0x3e,
  0x08, 0x5f, 0xf0, 0x3f, 0x71, 0x5b, 0xce, 0x3f, 0xae, 0x66, 0xb4, 0xbe,
  0x68, 0xa8, 0xb5, 0x3e, 0x03, 0xf4, 0x68, 0x3e, 0x2b, 0x97, 0x64, 0xbe,
  0x72, 0xac, 0xbf, 0xbe, 0x06, 0x8a, 0x2c, 0xbf, 0x26, 0xbd, 0x45, 0xbe,
  0xa1, 0x4c, 0xad, 0xbf, 0x70, 0x20, 0xd1, 0x3f, 0x9e, 0xb7, 0x24, 0x3e,
  0x2a, 0x69, 0xba, 0x3e, 0x60, 0xb1, 0x69, 0xbe, 0x8f, 0x4d, 0x05, 0xbf,
  0xd0, 0xed, 0x70, 0xbe, 0xbf, 0x38, 0x02, 0x3d, 0xe1, 0x29, 0x18, 0xbf,
  0x76, 0x0e, 0x51, 0xc0, 0xf0, 0xff, 0x0d, 0x3f, 0xcf, 0x73, 0xa9, 0x3e,
  0x83, 0xea, 0xa1, 0xbe, 0x47, 0x55, 0xe8, 0xbe, 0x90, 0x98, 0xfb, 0xbe,
  0xf1, 0xe7, 0x36, 0xbe, 0x6b, 0x07, 0xd9, 0x3d, 0xda, 0xd5, 0x90, 0xbe,
  0x7b, 0xe1, 0xbc, 0xc0, 0xcf, 0xbd, 0xad, 0x3f, 0x01, 0x93, 0x8d, 0xbc,
  0xd6, 0x0c, 0xbb, 0x3e, 0xc6, 0x2e, 0x8c, 0x3e, 0x4f, 0xdd, 0x1e, 0xbf,
  0xb1, 0x7d, 0x18, 0xbf, 0x32, 0x42, 0xac, 0x3e, 0x2f, 0x86, 0x1f, 0x3f,
  0x0c, 0xb5, 0x49, 0xbf, 0x8e, 0xb2, 0x8f, 0x3e, 0xc2, 0xed, 0x91, 0xbc,
  0xad, 0xf4, 0x7c, 0xbd, 0x2b, 0xe9, 0xc7, 0x3c, 0xbf, 0xe9, 0x22, 0x3f,
  0xa4, 0x13, 0x5a, 0x3f, 0x73, 0x3f, 0xc9, 0xbe, 0x60, 0x2f, 0x5f, 0x3e,
  0xef, 0x41, 0x4a, 0xbf, 0x7e, 0x17, 0xd4, 0xbe, 0xf0, 0xed, 0x40, 0x3c,
  0xf5, 0x67, 0x9c, 0xbf, 0x4e, 0x4d, 0xf0, 0x3d, 0x01, 0xb4, 0x22, 0x3f,
  0xc8, 0x92, 0x02, 0xbf, 0xd8, 0xf6, 0x83, 0xbe, 0x65, 0x32, 0xa3, 0xbd,
  0x65, 0xa2, 0xc5, 0x3c, 0xd9, 0xb2, 0x61, 0x3f, 0x5b, 0xe9, 0x98, 0xbe,
  0xf4, 0xa4, 0x33, 0x3d, 0x53, 0x20, 0x9d, 0x3c, 0xf4, 0x21, 0xde, 0x3e,
  0x7d, 0xda, 0x88, 0xbb, 0xbd, 0xa8, 0xc1, 0x3d, 0x1e, 0x98, 0x54, 0xbc,
  0x0b, 0x33, 0x8e, 0x40, 0xde, 0x2f, 0xc5, 0x3e, 0x28, 0xed, 0x6e, 0x3c,
  0xe2, 0xd4, 0x21, 0xbd, 0xeb, 0xd4, 0xf9, 0x3e, 0x0e, 0xed, 0xc2, 0xbe,
  0x5d, 0xfb, 0x3e, 0x3e, 0x3e, 0x5f, 0xaf, 0x3e, 0xb1, 0xd6, 0x95, 0x3e,
  0x28, 0xee, 0xa7, 0xbf, 0xb2, 0x4d, 0x46, 0xbf, 0xed, 0x42, 0x0b, 0x3f,
  0x86, 0xc4, 0x95, 0xbd, 0xdf, 0x6e, 0xa5, 0xbd, 0x8c, 0x4d, 0xc0, 0x3d,
  0x48, 0xa1, 0x44, 0x3f, 0x80, 0x65, 0x96, 0x3e, 0xe8, 0x4c, 0x88, 0x3f,
  0x4c, 0xc0, 0xcb, 0xbe, 0x7f, 0xa8, 0x50, 0x3f, 0x74, 0xa0, 0xdd, 0x3e,
  0x62, 0xf1, 0xdf, 0xbe, 0x7a, 0x6b, 0x23, 0x3f, 0x3f, 0xe1, 0xdb, 0xbd,
  0xf4, 0xec, 0xc6, 0x3f, 0x7c, 0x38, 0x99, 0xbd, 0x07, 0xfd, 0xac, 0x3d,
  0xb3, 0x84, 0x10, 0xc0, 0xcd, 0xcc, 0xa5, 0xbf, 0xeb, 0x7c, 0x97, 0x3e,
  0xc1, 0xf8, 0x9c, 0x3f, 0x1e, 0xec, 0xce, 0xbd, 0x42, 0x3d, 0xd0, 0xbe,
  0x5d, 0x8d, 0x54, 0x3c, 0x0e, 0xa2, 0xd6, 0xbc, 0x09, 0xa9, 0x6e, 0x3d,
  0x7d, 0x83, 0x2b, 0x3f, 0xd6, 0x30, 0x42, 0xbf, 0x52, 0x94, 0xc3, 0xbe,
  0x1a, 0xdb, 0xff, 0xff, 0x04, 0x00, 0x00, 0x00, 0x00, 0x01, 0x00, 0x00,
  0x02, 0x99, 0x28, 0x3e, 0x32, 0x2b, 0x20, 0xbf, 0xb3, 0xdb, 0x33, 0x3e,
  0xa3, 0x3d, 0x91, 0xbd, 0xcf, 0xf7, 0xbe, 0x3c, 0x68, 0x94, 0xa9, 0xbe,
  0x5a, 0xdf, 0xbf, 0x3d, 0x9e, 0xfc, 0x1f, 0xbd, 0xa2, 0xdf, 0x3d, 0xbf,
  0x23, 0x3a, 0xa8, 0xbd, 0x47, 0xe7, 0xc4, 0xbe, 0x13, 0x22, 0xb8, 0x3e,
  0x82, 0xf0, 0xcc, 0x3d, 0x3a, 0x8d, 0xcf, 0x3d, 0x12, 0x7d, 0x05, 0x3e,
  0x2d, 0x4c, 0xa9, 0xbe, 0xe3, 0x42, 0x54, 0xbc, 0xa2, 0x8d, 0x43, 0x3d,
  0x25, 0xa6, 0x99, 0xbd, 0x90, 0x26, 0xdf, 0xbc, 0x3a, 0x07, 0x84, 0x3d,
  0xe6, 0x22, 0xcc, 0xbd, 0xf2, 0x92, 0x10, 0x3d, 0x42, 0x00, 0x6f, 0x3e,
  0x15, 0x58, 0x54, 0x3e, 0x3e, 0xef, 0x99, 0x3e, 0xc2, 0x1d, 0xc6, 0xbc,
  0x9b, 0xaa, 0x98, 0x3d, 0xa0, 0x5a, 0x3b, 0x3d, 0x71, 0xec, 0x64, 0x3c,
  0xb5, 0x3c, 0x60, 0xbd, 0x2f, 0x76, 0x26, 0xbe, 0x6a, 0xbe, 0x0d, 0xbf,
  0x7d, 0x2b, 0x9d, 0x3d, 0x76, 0xdf, 0x17, 0xbe, 0x65, 0xf0, 0x60, 0x3d,
  0x5e, 0x93, 0x59, 0x3c, 0xab, 0xdb, 0x2f, 0xbe, 0x94, 0x27, 0xa1, 0x3d,
  0xc8, 0x4c, 0x9f, 0xbd, 0xa0, 0xdb, 0x24, 0xbe, 0x57, 0xf8, 0x27, 0x3e,
  0x29, 0xbd, 0x46, 0x3e, 0x13, 0xb3, 0x37, 0xbf, 0x4f, 0x59, 0x29, 0x3c,
  0x18, 0xb4, 0x66, 0x3e, 0x6e, 0x29, 0x0e, 0xbd, 0x56, 0xfe, 0xdf, 0x3e,
  0xec, 0x2e, 0x21, 0x3e, 0x88, 0x19, 0xd6, 0xbc, 0xd6, 0xdb, 0x16, 0xbd,
  0xda, 0x55, 0x29, 0xbf, 0xab, 0xda, 0x03, 0x3e, 0x74, 0xa2, 0x83, 0xbc,
  0x73, 0x38, 0xae, 0xbd, 0x3d, 0x0b, 0x9d, 0x3e, 0x46, 0xc2, 0xb4, 0xbd,
  0x21, 0xff, 0x08, 0x3e, 0xec, 0x3f, 0xad, 0x3e, 0x51, 0x2a, 0x16, 0x3e,
  0x75, 0xac, 0xac, 0xbc, 0x19, 0x81, 0x21, 0xbe, 0x04, 0xff, 0x67, 0xbd,
  0xe2, 0xe5, 0x2b, 0xbb, 0x26, 0xdc, 0xff, 0xff, 0x04, 0x00, 0x00, 0x00,
  0x80, 0x00, 0x00, 0x00, 0xa8, 0xf1, 0x5b, 0xbd, 0x97, 0x2c, 0x94, 0xbc,
  0x3e, 0x88, 0x53, 0x3e, 0xd8, 0xc5, 0x99, 0x3e, 0x15, 0x59, 0x50, 0xbd,
  0x98, 0xe2, 0xc7, 0x3e, 0x5a, 0x9a, 0xdb, 0x3d, 0x59, 0x7b, 0x95, 0x3e,
  0x1b, 0x1a, 0x68, 0x3e, 0xc5, 0x26, 0xee, 0x3d, 0x81, 0x6f, 0xd5, 0xbd,
  0x24, 0x12, 0x2d, 0x3e, 0xf4, 0xe7, 0x06, 0x3c, 0x46, 0x6b, 0xa4, 0x3e,
  0xc7, 0xdd, 0xe0, 0xbd, 0xfc, 0x60, 0xb2, 0x3e, 0x5e, 0x54, 0xc1, 0x3e,
  0x16, 0x95, 0xe9, 0x3e, 0x67, 0x22, 0x00, 0x3e, 0xae, 0xfb, 0x29, 0xbd,
  0xe5, 0x6e, 0x25, 0xbe, 0xff, 0x4b, 0xb3, 0x3d, 0x86, 0x30, 0x1f, 0x3e,
  0xfa, 0x59, 0xa4, 0x3d, 0x3a, 0xae, 0x89, 0x3e, 0xe6, 0xfb, 0x8c, 0x3e,
  0x3e, 0x3b, 0xca, 0x3e, 0x1f, 0x91, 0xc9, 0x3e, 0x45, 0xc0, 0x88, 0x3e,
  0x18, 0x40, 0x70, 0x3e, 0x25, 0xa0, 0x25, 0x3e, 0xb9, 0xf7, 0xfc, 0xbd,
  0xb2, 0xdc, 0xff, 0xff, 0x04, 0x00, 0x00, 0x00, 0x14, 0x00, 0x00, 0x00,
  0xea, 0x44, 0x0a, 0x3e, 0xa8, 0x1f, 0x01, 0xbf, 0x0a, 0x7a, 0x9c, 0x3e,
  0x59, 0x17, 0x30, 0x3d, 0xe0, 0xde, 0x58, 0xbd, 0xd2, 0xdc, 0xff, 0xff,
  0x04, 0x00, 0x00, 0x00, 0x00, 0x20, 0x00, 0x00, 0x2d, 0x8a, 0x37, 0xbe,
  0xf7, 0x96, 0x1c, 0xbf, 0xc7, 0xae, 0xf3, 0x3e, 0x32, 0xb7, 0x26, 0xbe,
  0x8f, 0x9a, 0x06, 0x3f, 0x59, 0xc4, 0x0d, 0xbe, 0x79, 0x56, 0x91, 0x3e,
  0x4f, 0x21, 0xb2, 0xbe, 0xad, 0x32, 0x56, 0x3e, 0x6b, 0xcd, 0xe2, 0xbe,
  0x1b, 0x2a, 0xcf, 0xbd, 0x2e, 0x9f, 0x2d, 0x3e, 0x79, 0x12, 0xd6, 0x3e,
  0xe9, 0xee, 0x99, 0x3e, 0xaf, 0xc7, 0xd5, 0x3e, 0x5c, 0xbd, 0x26, 0x3e,
  0x2e, 0xc0, 0x8b, 0xbd, 0x72, 0x06, 0x5e, 0xbe, 0x75, 0x5b, 0xa2, 0x3e,
  0x23, 0x3b, 0x0d, 0xbf, 0xe1, 0x12, 0x0d, 0x3f, 0xdb, 0xee, 0x36, 0xbe,
  0xaa, 0xef, 0x5b, 0xbf, 0x8a, 0x69, 0x85, 0x3e, 0x44, 0xb8, 0x01, 0x3f,
  0x05, 0xa6, 0xc7, 0x3e, 0x56, 0xa3, 0x7b, 0xbe, 0x46, 0x2d, 0xc7, 0x3e,
  0x7b, 0xee, 0xf1, 0xbd, 0xe7, 0x41, 0xfd, 0xbc, 0x27, 0x30, 0xde, 0xbc,
  0x52, 0xb2, 0x8c, 0x3e, 0x95, 0x89, 0x4f, 0xbe, 0xa2, 0x14, 0xd5, 0x3e,
  0x2e, 0x57, 0x22, 0xbe, 0xda, 0xa2, 0x68, 0xbe, 0x2b, 0x76, 0xdf, 0xbd,
  0xa8, 0x87, 0x51, 0xbc, 0xdb, 0x33, 0x9f, 0x3c, 0x8d, 0x17, 0xbf, 0x3e,
  0x75, 0xf4, 0x10, 0xbd, 0x5e, 0xe0, 0x14, 0xbe, 0xb2, 0xa9, 0x1a, 0xbe,
  0x1a, 0xcb, 0x0a, 0xbd, 0x05, 0xc6, 0x8b, 0x3e, 0xed, 0x93, 0x13, 0x3f,
  0x95, 0x02, 0xbe, 0xbd, 0x0d, 0x0b, 0x58, 0xbe, 0xc8, 0x61, 0x3e, 0x3e,
  0xf7, 0xc5, 0x40, 0xbd, 0x15, 0x51, 0x55, 0xbd, 0x06, 0xf3, 0x5f, 0xbe,
  0xee, 0xf4, 0xa5, 0xbe, 0x1b, 0x3b, 0x52, 0xbd, 0xa4, 0xae, 0xed, 0xbc,
  0x88, 0x74, 0xfd, 0xbd, 0x25, 0xc6, 0xf6, 0x3d, 0xc5, 0xc5, 0xba, 0xbd,
  0xf4, 0x4e, 0xae, 0xbe, 0x7e, 0x91, 0x24, 0x3e, 0x3b, 0x29, 0x8d, 0xbc,
  0xad, 0x98, 0xf2, 0xbe, 0xc3, 0x75, 0x5c, 0xbe, 0x2d, 0x4d, 0x63, 0x3f,
  0x9a, 0xc8, 0x53, 0x3e, 0x9b, 0x8e, 0x1f, 0x3f, 0x8b, 0xa3, 0x61, 0xbf,
  0xfb, 0x20, 0x17, 0xbc, 0xb5, 0x82, 0x80, 0xbf, 0x26, 0x06, 0x19, 0x3f,
  0xf9, 0x7b, 0x8d, 0xbf, 0xb1, 0xf0, 0x2e, 0x3f, 0xd2, 0x74, 0x49, 0x3f,
  0xb5, 0x5f, 0x02, 0x3e, 0x1b, 0x3c, 0x9d, 0x3e, 0x63, 0x56, 0x61, 0xbd,
  0x06, 0x43, 0x3d, 0x3e, 0x12, 0xc4, 0x30, 0x3c, 0xeb, 0x89, 0x79, 0xbd,
  0xc1, 0xa2, 0xf7, 0x3e, 0xad, 0x82, 0x00, 0x3f, 0x65, 0x17, 0xf8, 0xbb,
  0x70, 0x7d, 0x46, 0x3e, 0x12, 0x96, 0x21, 0x3e, 0xf2, 0x3a, 0x19, 0xbe,
  0xdb, 0x12, 0xd9, 0x3e, 0x17, 0x06, 0x96, 0x3e, 0x85, 0x3a, 0xb5, 0xbd,
  0x44, 0x50, 0x01, 0x3e, 0x10, 0xb1, 0x0f, 0xbe, 0x6e, 0x26, 0x75, 0xbc,
  0x03, 0x55, 0x15, 0xbf, 0xb1, 0x78, 0x67, 0xbe, 0xc2, 0xad, 0x35, 0xbe,
  0x98, 0xe9, 0x84, 0xbe, 0x38, 0x63, 0x8a, 0xbd, 0x0f, 0x09, 0xfd, 0x3e,
  0x49, 0x2e, 0x4f, 0x3d, 0x7a, 0x7e, 0xef, 0x3e, 0xf8, 0xef, 0xc8, 0xbf,
  0x44, 0xbd, 0x98, 0x3e, 0xfd, 0x34, 0x01, 0x3f, 0xa2, 0xa9, 0x86, 0x3f,
  0x39, 0xb0, 0x5b, 0x3f, 0x32, 0x4f, 0x6f, 0x3e, 0xd2, 0x40, 0x7e, 0xbe,
  0x09, 0xe8, 0xef, 0x3d, 0x7b, 0x7c, 0x62, 0x3f, 0xf6, 0x82, 0x84, 0xbf,
  0x6c, 0x13, 0x4b, 0xbe, 0x95, 0x84, 0x01, 0x3e, 0xe4, 0xe5, 0x5f, 0x3e,
  0xba, 0xfd, 0x5e, 0x3d, 0xa9, 0x23, 0x08, 0xbe, 0x7b, 0x98, 0xed, 0x3e,
  0x79, 0x91, 0xa9, 0x3f, 0x32, 0x1c, 0xe4, 0x3e, 0x47, 0x6c, 0x45, 0xbe,
  0xcb, 0x02, 0xc9, 0x3d, 0xc5, 0x34, 0x13, 0x3f, 0xf9, 0xbb, 0xdb, 0xbe,
  0x95, 0x4a, 0x5c, 0xbe, 0x1b, 0xc7, 0x84, 0x3c, 0x8c, 0xda, 0x2a, 0x3f,
  0xcc, 0x60, 0x70, 0x3e, 0x26, 0x32, 0xc1, 0xbd, 0xda, 0xdb, 0x94, 0xbd,
  0xb3, 0xe0, 0x15, 0x3e, 0xbe, 0x70, 0x22, 0x3e, 0x77, 0x27, 0x66, 0x3e,
  0xd3, 0x32, 0x15, 0xbe, 0x5a, 0x1a, 0x54, 0x3e, 0xc7, 0x91, 0xc6, 0xbc,
  0x88, 0x1d, 0xb8, 0x3d, 0x12, 0xa0, 0x93, 0xbd, 0xb4, 0xc3, 0x16, 0xc0,
  0x7e, 0x7e, 0x98, 0x3e, 0xc7, 0xf6, 0x31, 0xbf, 0x1a, 0x56, 0x6f, 0x3e,
  0x9d, 0xd6, 0x27, 0xbd, 0x2a, 0x3f, 0x33, 0x3f, 0xd7, 0x70, 0x24, 0xbe,
  0xd4, 0xf8, 0xf5, 0x3e, 0x8b, 0x15, 0xcf, 0x3e, 0x5c, 0xe5, 0x6b, 0x3e,
  0xcd, 0x64, 0xbb, 0xbf, 0x23, 0xe4, 0x8f, 0xbf, 0x0b, 0xde, 0xd2, 0xbf,
  0x4c, 0xe5, 0x65, 0xbd, 0x25, 0x54, 0xac, 0x3d, 0x4a, 0x29, 0xbf, 0x3e,
  0xcf, 0x79, 0xa6, 0x3b, 0x97, 0x7f, 0xec, 0x3e, 0xff, 0x2a, 0xa6, 0x3e,
  0xfd, 0xb0, 0x56, 0xbe, 0xf2, 0x49, 0xcf, 0xbe, 0xe3, 0x31, 0x91, 0xbe,
  0xe0, 0xef, 0x6f, 0x3f, 0x2f, 0x21, 0xa2, 0x3e, 0xc1, 0x3b, 0xeb, 0x3b,
  0xb5, 0xfc, 0x9b, 0xbf, 0x57, 0xff, 0xd5, 0xbf, 0xe6, 0x11, 0x8a, 0x3e,
  0xba, 0x34, 0xb0, 0x3e, 0xc8, 0xc0, 0x0c, 0xc0, 0x0e, 0x3d, 0xad, 0x3e,
  0x66, 0x8f, 0x0a, 0xbe, 0xf5, 0x18, 0x99, 0xc0, 0x07, 0x46, 0xa2, 0x3e,
  0x71, 0x88, 0x63, 0xbe, 0xb1, 0x89, 0xb9, 0x3e, 0x88, 0x93, 0xca, 0xbf,
  0xa6, 0x9f, 0x0c, 0xbe, 0x67, 0x30, 0xd6, 0xbd, 0xa9, 0x39, 0xa1, 0x3e,
  0xa8, 0xea, 0x4c, 0xbd, 0xf9, 0xad, 0x4d, 0x3e, 0x05, 0x67, 0xab, 0x3e,
  0xf7, 0xc8, 0x3c, 0x3c, 0xe1, 0x1b, 0xab, 0xbe, 0x50, 0xfe, 0x2a, 0xc0,
  0xbe, 0x9b, 0xa8, 0xbe, 0x54, 0xa0, 0xc0, 0x3e, 0xfd, 0x81, 0xfc, 0xbe,
  0x4e, 0xc1, 0x94, 0xba, 0xfc, 0x73, 0x45, 0xbe, 0xcf, 0x59, 0xe1, 0xbe,
  0x44, 0x43, 0x89, 0xbc, 0x7d, 0x08, 0xc5, 0x3e, 0xf5, 0x35, 0x4c, 0x3f,
  0x8a, 0x08, 0xee, 0xbe, 0xc4, 0x15, 0x51, 0x3c, 0x53, 0x28, 0xa7, 0x3e,
  0x2d, 0xba, 0x31, 0x3e, 0xfb, 0x7a, 0x46, 0xbe, 0xfa, 0x24, 0x15, 0x3e,
  0x53, 0xeb, 0x2a, 0x3e, 0x8e, 0x91, 0x1e, 0x3f, 0x95, 0xec, 0x9e, 0x3c,
  0x0b, 0x63, 0x39, 0x3d, 0x84, 0x95, 0x5f, 0x3f, 0xca, 0x1c, 0xf4, 0x3e,
  0xac, 0x44, 0x39, 0xbe, 0x49, 0xf8, 0x0b, 0x3d, 0x7e, 0x57, 0x10, 0xbe,
  0xa6, 0x47, 0xde, 0xbd, 0xbd, 0xbd, 0x5a, 0x3e, 0xb0, 0xe1, 0x21, 0x3f,
  0x84, 0xea, 0x57, 0x3d, 0x68, 0xcd, 0xd2, 0x3d, 0x1f, 0x48, 0xa7, 0x3d,
  0x9e, 0xbd, 0x8c, 0xbe, 0xe3, 0xcd, 0x28, 0xbd, 0x6e, 0x2b, 0x6c, 0x3e,
  0x14, 0x7d, 0x0b, 0x3f, 0xd4, 0x1e, 0xa5, 0x3c, 0xb5, 0x29, 0x9e, 0x3e,
  0xb6, 0xa5, 0x95, 0x3b, 0xad, 0xba, 0x12, 0x3e, 0xf2, 0xfe, 0xd8, 0xbd,
  0x65, 0xce, 0x72, 0xbe, 0x65, 0x90, 0xcc, 0x3a, 0xd7, 0xa3, 0xa1, 0xbe,
  0xa6, 0xc5, 0x0b, 0xbe, 0xcb, 0xb3, 0x2e, 0x3f, 0x92, 0x98, 0x70, 0x3c,
  0x4b, 0x03, 0x3d, 0x3f, 0x89, 0xd5, 0xc1, 0xbe, 0x3e, 0x13, 0x13, 0x3f,
  0xb0, 0x3e, 0xb6, 0x3e, 0x1a, 0xc8, 0x18, 0x3f, 0x3c, 0x20, 0x14, 0x3f,
  0x9c, 0x5b, 0x73, 0x3e, 0xee, 0x41, 0x32, 0xbe, 0x8a, 0x3a, 0x9d, 0x3e,
  0x34, 0x76, 0x0c, 0x3f, 0x14, 0x22, 0x46, 0xbd, 0xcb, 0xd8, 0x5a, 0xbe,
  0xf0, 0xbf, 0x92, 0x3d, 0x87, 0x34, 0x93, 0x3e, 0x24, 0x7e, 0xbe, 0xbc,
  0x1e, 0xb7, 0x6c, 0xbd, 0xc6, 0xe7, 0x4c, 0x3f, 0x82, 0x31, 0x9b, 0x3e,
  0x98, 0x60, 0x3a, 0xbd, 0xed, 0xac, 0x0c, 0x3e, 0x32, 0xf7, 0xd1, 0xbe,
  0x9c, 0x52, 0xef, 0x3d, 0xce, 0x4a, 0x83, 0xbc, 0x84, 0x24, 0x5b, 0xbe,
  0xa4, 0x22, 0x75, 0xbd, 0x41, 0x8e, 0x65, 0x3e, 0x2d, 0xe6, 0x67, 0x3e,
  0x14, 0xc0, 0x06, 0xbf, 0xae, 0x67, 0x3c, 0x3e, 0xb9, 0x27, 0x85, 0xbe,
  0x6b, 0xa4, 0xbb, 0xbd, 0x0f, 0xf5, 0x49, 0x3f, 0x17, 0x34, 0xff, 0x3c,
  0x58, 0x1e, 0xec, 0x3c, 0xe0, 0xd5, 0xb5, 0x3d, 0x64, 0x42, 0x2a, 0x3f,
  0x2c, 0xe9, 0x39, 0x3e, 0xb5, 0xc5, 0xb8, 0x3f, 0x02, 0xdc, 0x99, 0x3f,
  0x3a, 0x2b, 0xb4, 0x3e, 0xca, 0x63, 0x87, 0x3f, 0xd6, 0x4b, 0xc7, 0xbe,
  0xfc, 0x30, 0x3f, 0xc0, 0x9b, 0xfa, 0xec, 0x3d, 0x88, 0xdb, 0x37, 0xbe,
  0x3d, 0x5e, 0x53, 0x3f, 0x31, 0x2b, 0xc1, 0x3e, 0xba, 0xab, 0x3c, 0xbe,
  0xaf, 0xb9, 0x21, 0xbb, 0x2d, 0xce, 0x15, 0xbe, 0xde, 0x7b, 0xe2, 0x3e,
  0x4e, 0xf8, 0xaf, 0xbe, 0x5c, 0xde, 0x5d, 0x3e, 0xc1, 0xb5, 0xa5, 0x3d,
  0x25, 0xc4, 0x29, 0xbf, 0x88, 0x09, 0xb8, 0xbd, 0x3e, 0x6f, 0x83, 0xbe,
  0xcb, 0x25, 0xdd, 0x3d, 0x3f, 0xad, 0x89, 0xbe, 0xc2, 0x68, 0x16, 0xc0,
  0xef, 0xa9, 0xfe, 0x3d, 0x45, 0xa6, 0x2d, 0xbe, 0x66, 0x05, 0xba, 0x3f,
  0x61, 0x36, 0x56, 0xbe, 0xda, 0xb7, 0x86, 0x3e, 0x65, 0xa3, 0x34, 0xbf,
  0xd2, 0xef, 0x9d, 0x3e, 0x4f, 0x46, 0xac, 0xbb, 0xde, 0xa9, 0xdc, 0x3e,
  0xe9, 0x03, 0x12, 0x3f, 0x8e, 0x38, 0x0f, 0xbe, 0x6b, 0x68, 0x09, 0x3e,
  0xbb, 0x05, 0x4d, 0x3d, 0x97, 0xd7, 0xbe, 0x3e, 0x5a, 0xb1, 0x28, 0xbd,
  0x04, 0x13, 0x22, 0x3e, 0x02, 0xc9, 0xae, 0x3c, 0x86, 0x75, 0x29, 0x3e,
  0xc2, 0x4d, 0x87, 0xbf, 0x23, 0x5e, 0xb8, 0x3c, 0xbd, 0x45, 0x08, 0x3e,
  0x05, 0x87, 0xec, 0x3d, 0x7d, 0x64, 0xfe, 0x3e, 0x87, 0x17, 0x1b, 0xbe,
  0xa1, 0x04, 0x79, 0xbe, 0xa5, 0xbc, 0x44, 0x3f, 0x9c, 0xfa, 0x12, 0x3e,
  0x7d, 0x28, 0x8a, 0x3c, 0xb9, 0xaa, 0x22, 0xbf, 0xeb, 0x8b, 0x58, 0xbb,
  0x26, 0xc4, 0xda, 0x3e, 0x2c, 0xd9, 0x2e, 0xbe, 0x85, 0xd8, 0xe6, 0xbd,
  0x6b, 0xb0, 0xa9, 0xbe, 0x10, 0x21, 0x8a, 0x3e, 0x06, 0x39, 0x81, 0xbf,
  0xc5, 0x62, 0x8f, 0xbd, 0x70, 0x55, 0x6a, 0x3e, 0x3c, 0x25, 0xcf, 0xbe,
  0x84, 0xf0, 0x7a, 0x3f, 0x89, 0x6d, 0x71, 0xbd, 0x3c, 0xb5, 0xe8, 0xbf,
  0xba, 0x9e, 0x40, 0xbf, 0x0a, 0x68, 0x5f, 0x3e, 0xe2, 0xc7, 0x94, 0x3e,
  0xe9, 0x00, 0x9f, 0x3e, 0x64, 0x4d, 0x78, 0x3e, 0x13, 0x76, 0xca, 0x3e,
  0x6d, 0x2d, 0xb4, 0xbd, 0xdf, 0x84, 0x88, 0x3d, 0xe9, 0x36, 0xb4, 0x3e,
  0x25, 0x29, 0x4e, 0xbe, 0xbe, 0x2d, 0x48, 0xbe, 0xcb, 0x2e, 0xef, 0xbd,
  0xa3, 0x40, 0x47, 0xbf, 0x85, 0x8f, 0x03, 0xbd, 0x9a, 0xed, 0xf3, 0x3e,
  0xb4, 0xdb, 0xbb, 0xbe, 0xd7, 0x40, 0x87, 0x3e, 0x8b, 0xb7, 0x82, 0xbe,
  0x14, 0x27, 0x7a, 0xbe, 0x34, 0xee, 0x41, 0xbe, 0x09, 0xa6, 0xb1, 0xbe,
  0x7b, 0x0c, 0x6a, 0x3e, 0xe8, 0xe9, 0xdb, 0xbe, 0x03, 0xfd, 0x46, 0x3d,
  0xf8, 0xb5, 0x2a, 0xbe, 0xd6, 0xd5, 0xca, 0x3e, 0x32, 0x09, 0xc2, 0x3e,
  0xb3, 0x4e, 0x70, 0xbe, 0xf2, 0x13, 0x42, 0x3f, 0x06, 0x9a, 0x5b, 0xbd,
  0x8a, 0x2b, 0xbf, 0x3d, 0xab, 0x43, 0x0f, 0xbe, 0xa4, 0x49, 0xe4, 0xbd,
  0xc6, 0xb2, 0x12, 0xbe, 0xdb, 0x15, 0x0e, 0x3f, 0x99, 0x65, 0x0b, 0x3f,
  0xf1, 0x14, 0x56, 0xbe, 0x77, 0xda, 0x8f, 0xbe, 0x7e, 0x21, 0x4e, 0x3e,
  0x35, 0x99, 0x33, 0x3f, 0x18, 0x3a, 0x80, 0xbe, 0xde, 0xca, 0x7a, 0x3e,
  0x60, 0xcb, 0xe6, 0x3e, 0xa5, 0x96, 0x19, 0x3e, 0x67, 0x0f, 0xc2, 0x3e,
  0x3d, 0x23, 0x65, 0x3c, 0x2d, 0x41, 0x0d, 0xbe, 0x20, 0xc6, 0x0b, 0xbf,
  0x76, 0xe9, 0xab, 0xbe, 0x17, 0x17, 0xa0, 0x3d, 0xb8, 0xd9, 0xa1, 0x3e,
  0xf0, 0xc2, 0x38, 0x3f, 0xda, 0xef, 0xa7, 0x3e, 0x02, 0xc1, 0x24, 0xbd,
  0xe0, 0x45, 0xe8, 0x3e, 0x00, 0x87, 0xe2, 0xbe, 0x9d, 0x72, 0xe2, 0x3e,
  0x63, 0xd5, 0x91, 0xbf, 0xdf, 0x4c, 0x7a, 0x3e, 0x1f, 0xad, 0x7f, 0xbe,
  0x1e, 0x8d, 0xdc, 0x3c, 0x4d, 0x09, 0x42, 0xbc, 0x63, 0x8f, 0x2f, 0xbd,
  0xbc, 0x23, 0xbb, 0x3d, 0x53, 0x45, 0x52, 0xbf, 0x6b, 0x6d, 0x4b, 0x3e,
  0xc6, 0xff, 0xfc, 0xbe, 0x96, 0x83, 0x02, 0x3e, 0xe3, 0x15, 0xbd, 0x3e,
  0x60, 0x42, 0xfc, 0x3d, 0x19, 0x4a, 0x02, 0x3e, 0x70, 0xb8, 0x54, 0xbe,
  0xf5, 0x22, 0x58, 0x3e, 0x6f, 0xd0, 0x9f, 0x3c, 0x0a, 0x89, 0xb1, 0x3d,
  0xac, 0x54, 0x26, 0x3e, 0xba, 0x0a, 0x9c, 0xb9, 0x38, 0xc1, 0x01, 0xbb,
  0x7c, 0x66, 0xc6, 0x3d, 0xc2, 0x9b, 0x8d, 0x3c, 0xd9, 0x0f, 0xcb, 0x3e,
  0xd1, 0x5f, 0x02, 0x3f, 0x09, 0x24, 0x22, 0x3e, 0xd4, 0xea, 0x0e, 0x3f,
  0x98, 0x46, 0x12, 0xbe, 0x29, 0x50, 0x94, 0x3e, 0xd9, 0xf7, 0x38, 0x3e,
  0xc7, 0x59, 0x98, 0x3e, 0xe4, 0xe5, 0x46, 0xbe, 0xc9, 0x6e, 0xa2, 0xbd,
  0xcd, 0x82, 0x1f, 0xbe, 0x33, 0x58, 0x13, 0x3e, 0x12, 0x90, 0xcf, 0xbd,
  0xdc, 0xf3, 0xab, 0xbe, 0xad, 0xf0, 0x82, 0xbe, 0x34, 0x6f, 0x49, 0xbf,
  0x6f, 0x94, 0x92, 0xbe, 0xdf, 0x3b, 0x66, 0xbd, 0x28, 0x74, 0x8a, 0xbe,
  0x8a, 0x6b, 0xb6, 0xbe, 0x9e, 0x96, 0xa0, 0x3e, 0xc6, 0x8d, 0x18, 0x3e,
  0x97, 0x6a, 0x25, 0x3e, 0x17, 0x3f, 0x5a, 0x3e, 0xfb, 0xad, 0xe8, 0x3e,
  0xd4, 0x34, 0xec, 0xbc, 0xe9, 0xb9, 0xb5, 0xbe, 0x57, 0x31, 0x88, 0x3e,
  0x3b, 0xa8, 0x1d, 0x3e, 0xb5, 0x91, 0xd9, 0xbc, 0xd1, 0x8b, 0x83, 0x3e,
  0xdd, 0x58, 0xe3, 0xbe, 0x34, 0x78, 0x0f, 0xbd, 0x4b, 0x0c, 0xa0, 0x3e,
  0x0d, 0x6d, 0x82, 0x3e, 0x89, 0xd7, 0xc2, 0xbb, 0x2b, 0xdd, 0x92, 0xbe,
  0x80, 0xcc, 0x20, 0x3e, 0xd7, 0x51, 0xdf, 0xbc, 0xcb, 0x06, 0xd1, 0x3e,
  0x07, 0xdb, 0x83, 0xbc, 0x63, 0x48, 0x07, 0xbf, 0xec, 0xdd, 0xce, 0xba,
  0x9f, 0x5f, 0x35, 0x3e, 0x68, 0xdb, 0x43, 0x3e, 0x25, 0x86, 0x06, 0xbf,
  0x2e, 0xff, 0x6e, 0xbe, 0x3f, 0x7a, 0xa6, 0xbc, 0x45, 0xa9, 0x06, 0xbf,
  0x22, 0x7d, 0x02, 0x3d, 0x28, 0xd3, 0x6e, 0xbd, 0x48, 0x06, 0x86, 0xbc,
  0x5b, 0xf5, 0x30, 0x3e, 0x80, 0xc0, 0xa1, 0xbd, 0x6b, 0x3a, 0xf6, 0x3d,
  0xfa, 0xbe, 0xb4, 0xbe, 0xde, 0x8e, 0x6d, 0xbd, 0x15, 0x8e, 0x97, 0xbf,
  0x5b, 0x6a, 0x17, 0xbd, 0x3a, 0xe3, 0x35, 0xbf, 0xcc, 0x4d, 0x7e, 0x3e,
  0x7b, 0x36, 0xf0, 0xbd, 0x83, 0x0d, 0xb1, 0x3e, 0x8d, 0x10, 0x9d, 0x3e,
  0xa6, 0xea, 0x1e, 0x3f, 0xb3, 0xb4, 0xf9, 0x3d, 0xa4, 0x71, 0x09, 0xbf,
  0xbc, 0x7d, 0x3d, 0xbe, 0x40, 0xac, 0x5e, 0xbf, 0x64, 0x45, 0x21, 0x3f,
  0x32, 0xd5, 0x19, 0xbe, 0xa0, 0xe0, 0x41, 0xbe, 0x7d, 0xc0, 0x02, 0xbf,
  0x6e, 0xe5, 0x94, 0x3e, 0x8d, 0xda, 0x00, 0x3e, 0xd3, 0xb8, 0x1e, 0x3f,
  0xc0, 0xec, 0xa8, 0xbf, 0xd7, 0x56, 0xca, 0x3d, 0xdf, 0x3d, 0xc4, 0xbe,
  0x6f, 0x56, 0xd0, 0xbf, 0x06, 0xc5, 0x38, 0xbe, 0x29, 0x59, 0x1f, 0x3f,
  0xc4, 0xab, 0x0b, 0x3f, 0x4e, 0x00, 0x13, 0xbf, 0x25, 0xfe, 0x8c, 0x3e,
  0x1f, 0xbf, 0x1f, 0x3f, 0x06, 0xc2, 0x83, 0xbd, 0xd1, 0x2f, 0x16, 0xbe,
  0x73, 0xf2, 0xc5, 0x3e, 0x4c, 0x4a, 0x00, 0xbf, 0xf5, 0x95, 0x93, 0xbe,
  0xe0, 0x9e, 0xd6, 0xbf, 0x92, 0x50, 0x83, 0xbe, 0xc8, 0xed, 0xb3, 0xbc,
  0xff, 0x60, 0x82, 0xbd, 0xf1, 0x0d, 0xf6, 0x3d, 0x18, 0x94, 0x81, 0x3d,
  0x18, 0x9a, 0xc4, 0xbf, 0xc2, 0xba, 0x74, 0x3e, 0x68, 0x16, 0x56, 0x3e,
  0x92, 0xed, 0x02, 0x3e, 0x26, 0xe3, 0x8a, 0xbe, 0xdd, 0xca, 0xaa, 0xbf,
  0x2c, 0x09, 0x59, 0xbd, 0xd2, 0xfd, 0xa6, 0x3d, 0xb3, 0x68, 0x81, 0xbe,
  0x21, 0x01, 0x40, 0xbe, 0x4a, 0x8c, 0x15, 0xbc, 0x25, 0x2b, 0xb5, 0xbe,
  0x17, 0x5f, 0x31, 0x3e, 0x8e, 0x14, 0xda, 0xbe, 0xe0, 0xc0, 0x43, 0x3f,
  0x1a, 0x43, 0x25, 0x3e, 0x05, 0x33, 0x96, 0x3f, 0x87, 0x1a, 0x0b, 0x3e,
  0xf3, 0x4b, 0xc8, 0x3e, 0xad, 0xfa, 0x21, 0x3f, 0xda, 0x52, 0xe3, 0x3e,
  0x7e, 0x3d, 0xa2, 0x3e, 0x04, 0x3b, 0xa8, 0x3d, 0x03, 0x76, 0x2f, 0x3f,
  0xdd, 0xa7, 0x8f, 0xc0, 0x29, 0x50, 0x99, 0xc0, 0xb1, 0xe7, 0xca, 0xc0,
  0x7e, 0x71, 0xe5, 0x3c, 0xf5, 0xbc, 0x02, 0xc0, 0x1e, 0x7a, 0x95, 0x3e,
  0x3c, 0x4f, 0x2a, 0x3f, 0xda, 0xf6, 0x82, 0x3c, 0x7f, 0xcb, 0xe3, 0x3e,
  0xfc, 0x99, 0x38, 0xbf, 0xdd, 0x00, 0x73, 0x3c, 0x99, 0x19, 0xbb, 0xbe,
  0x3d, 0x8e, 0x18, 0xbf, 0xb3, 0xc4, 0xcd, 0xbe, 0x2a, 0x6a, 0x75, 0xc0,
  0xe6, 0x54, 0x02, 0xbf, 0xcd, 0x7e, 0x11, 0xbe, 0x3a, 0x10, 0xa0, 0x3a,
  0xa5, 0x02, 0x47, 0xbf, 0xd8, 0x3b, 0x9f, 0xc0, 0x3b, 0x86, 0x4f, 0x3e,
  0x03, 0x6a, 0xa4, 0x3e, 0x8b, 0x2e, 0x4f, 0xc0, 0xae, 0x94, 0x0f, 0x3f,
  0x47, 0x9c, 0x0e, 0xbd, 0x41, 0x5b, 0x6d, 0x3d, 0x3d, 0x9b, 0xca, 0xbe,
  0xf1, 0x61, 0x8d, 0xc0, 0x40, 0xe4, 0x84, 0x3e, 0xfc, 0x84, 0x26, 0xc0,
  0x0b, 0x6c, 0x15, 0x3b, 0x7e, 0xa7, 0xc0, 0x3e, 0x05, 0x8a, 0x39, 0x3e,
  0xb3, 0x2c, 0x4f, 0x3e, 0xa5, 0x9a, 0x5c, 0xbf, 0x1b, 0x1f, 0xfa, 0xbe,
  0x19, 0xf2, 0xb0, 0x3d, 0xb7, 0x38, 0x0f, 0xbf, 0x5c, 0x40, 0x1b, 0xbe,
  0x23, 0xc3, 0x4e, 0xbe, 0x7e, 0x42, 0x66, 0xbf, 0x3b, 0xe5, 0xf6, 0xbd,
  0xb1, 0x83, 0x56, 0x3e, 0xfe, 0x88, 0x12, 0xbd, 0xe4, 0x50, 0x61, 0x3f,
  0x46, 0x19, 0xe6, 0xc0, 0xbe, 0x73, 0x2d, 0x3d, 0xb6, 0xdc, 0x62, 0xbe,
  0x03, 0x22, 0x99, 0x3f, 0x18, 0x59, 0x62, 0x3e, 0xcf, 0x45, 0x97, 0x3e,
  0x44, 0x56, 0x28, 0xbf, 0xb9, 0x21, 0x84, 0x3e, 0xc8, 0x07, 0x82, 0x3f,
  0xca, 0x97, 0xe2, 0x3e, 0x33, 0x5d, 0x59, 0x3f, 0x0e, 0x06, 0xbe, 0x3e,
  0x49, 0xe3, 0x45, 0x3f, 0x81, 0x8e, 0x8c, 0xbd, 0xaa, 0x9b, 0xcf, 0xbe,
  0xc8, 0xb0, 0xb1, 0x3e, 0x8d, 0xd4, 0x41, 0x3e, 0x7b, 0x21, 0x36, 0x3f,
  0x1d, 0xe7, 0x0c, 0x3d, 0x71, 0x8e, 0x19, 0xbf, 0xa0, 0x1b, 0xc2, 0x3d,
  0xdf, 0x68, 0x27, 0xbe, 0x76, 0x8b, 0x84, 0xbe, 0x68, 0x9a, 0x16, 0x3e,
  0xfa, 0xc6, 0x4c, 0x3e, 0x81, 0x1f, 0x10, 0x3e, 0x92, 0xe0, 0x22, 0xc0,
  0xad, 0x14, 0x88, 0xbe, 0x00, 0x4d, 0x93, 0xbe, 0x2c, 0xea, 0x13, 0xbf,
  0x33, 0xd6, 0xa5, 0xbc, 0xfe, 0x31, 0x56, 0xc0, 0x8d, 0x46, 0x37, 0xbe,
  0xfb, 0x25, 0xa6, 0xbf, 0x77, 0xa9, 0x16, 0x3e, 0x6c, 0x27, 0x61, 0x3f,
  0x18, 0x3a, 0xb4, 0xbc, 0x0f, 0x2d, 0x87, 0x3d, 0xbf, 0xfa, 0x61, 0x3e,
  0xea, 0x01, 0x5f, 0x3e, 0x62, 0x47, 0x62, 0x3e, 0x5f, 0x93, 0x74, 0x3f,
  0x6e, 0x3c, 0x36, 0xbf, 0xee, 0x68, 0x9e, 0xbe, 0x80, 0xdc, 0xa0, 0x3e,
  0xd0, 0xc9, 0x4d, 0x3d, 0x04, 0x3e, 0x3c, 0xbf, 0x4a, 0xc5, 0x2a, 0xbd,
  0x2b, 0x7e, 0xbb, 0xbe, 0xce, 0x1a, 0x4e, 0x3e, 0x85, 0x88, 0x00, 0xbe,
  0x38, 0x8c, 0x54, 0xbf, 0xa0, 0xe9, 0x87, 0x3e, 0xfa, 0x4a, 0x58, 0x3e,
  0xed, 0x75, 0x7d, 0x3f, 0x0a, 0xa0, 0xfc, 0x3a, 0x41, 0x85, 0x12, 0xbf,
  0x8f, 0xaf, 0xe9, 0x3e, 0x56, 0xf9, 0xf8, 0x3d, 0xaa, 0xee, 0x92, 0xbf,
  0xbe, 0xff, 0x1e, 0xbc, 0xf7, 0x92, 0x8d, 0x3e, 0xde, 0xcf, 0x22, 0x3e,
  0xb8, 0x81, 0x6d, 0xbf, 0x5d, 0xaa, 0xd6, 0x3d, 0x8f, 0xab, 0x0e, 0xbd,
  0x87, 0x91, 0x2e, 0xbf, 0x0c, 0xd3, 0x97, 0x3f, 0x64, 0xe6, 0x0c, 0x3f,
  0x37, 0xfb, 0xb4, 0x3e, 0xed, 0x30, 0xdd, 0x3e, 0x51, 0x97, 0x98, 0x3f,
  0xc3, 0x93, 0xb4, 0x3e, 0x2a, 0x3d, 0x8b, 0xbe, 0x89, 0xfd, 0x8c, 0x3f,
  0x7a, 0xd8, 0x22, 0x3e, 0xf2, 0xc3, 0x7f, 0x3f, 0xbf, 0xff, 0x3d, 0xbf,
  0xdc, 0xc3, 0x5f, 0x3e, 0x31, 0xd2, 0x2e, 0xbf, 0xae, 0x53, 0x5b, 0xbe,
  0x3b, 0xfa, 0x93, 0x3f, 0xc9, 0x26, 0x17, 0xbd, 0x2e, 0xe6, 0xd7, 0x3d,
  0x76, 0x65, 0x81, 0x3e, 0x43, 0xf9, 0x13, 0xbf, 0x44, 0xec, 0x80, 0x3e,
  0x65, 0x89, 0x20, 0xbe, 0x5c, 0xd3, 0x3b, 0xbe, 0xfa, 0xb7, 0x07, 0x3d,
  0x85, 0xe7, 0x06, 0x3e, 0xae, 0x69, 0x1c, 0x3f, 0xae, 0x61, 0x06, 0xbf,
  0x48, 0xc8, 0x0c, 0xbf, 0x9d, 0xeb, 0x0c, 0x3f, 0x32, 0xce, 0x43, 0x3e,
  0xa2, 0x62, 0x2d, 0xbe, 0x51, 0x0d, 0xe3, 0xbe, 0xdc, 0xb6, 0x8c, 0x3e,
  0x05, 0x50, 0x75, 0xbd, 0xee, 0x9d, 0x2c, 0xbe, 0x0d, 0x20, 0x38, 0xbe,
  0x23, 0x2f, 0xd2, 0xbe, 0xda, 0x0f, 0x8c, 0x3e, 0x61, 0x38, 0xb6, 0xbe,
  0xb4, 0x8f, 0x80, 0xbe, 0xae, 0x14, 0xd5, 0x3e, 0x20, 0xb6, 0x16, 0xbf,
  0x51, 0xca, 0x20, 0x3e, 0xba, 0x5c, 0x05, 0xbe, 0x49, 0xed, 0x5b, 0xbf,
  0xf1, 0xe6, 0xc0, 0x3e, 0xb5, 0x5d, 0x13, 0xbe, 0x47, 0xb5, 0xc7, 0xbe,
  0x91, 0x49, 0xa9, 0x3d, 0xae, 0xc3, 0x68, 0x3e, 0xca, 0xd4, 0x31, 0x3f,
  0x49, 0x3e, 0xf1, 0xbf, 0xa6, 0x15, 0x3a, 0xbd, 0x2e, 0xec, 0x39, 0xbe,
  0xcf, 0x82, 0x13, 0xbd, 0x58, 0x5e, 0x46, 0xbe, 0x6d, 0x4c, 0x95, 0x3e,
  0x94, 0x85, 0x8a, 0xbd, 0x2d, 0x88, 0xdc, 0xbe, 0x02, 0xe1, 0xd9, 0xbe,
  0x7b, 0x9e, 0xf7, 0x3e, 0x64, 0x3e, 0x0b, 0xbf, 0x8e, 0xda, 0xf3, 0x3d,
  0xf7, 0x5d, 0xc3, 0x3e, 0xc1, 0x94, 0x7d, 0x3e, 0xc6, 0x84, 0xd9, 0xbf,
  0x02, 0x70, 0xe7, 0xbc, 0xeb, 0xde, 0xb3, 0xbe, 0x4c, 0x6e, 0xb0, 0xc0,
  0x16, 0x56, 0xaf, 0x40, 0x3a, 0xae, 0x8c, 0xc0, 0x94, 0x98, 0x5d, 0x40,
  0xb1, 0x1c, 0x1b, 0xc0, 0x84, 0xf9, 0xa7, 0x3f, 0x8b, 0xeb, 0xab, 0xbf,
  0x50, 0x55, 0xde, 0x3e, 0x97, 0x0c, 0xc1, 0xc0, 0x7b, 0xa1, 0xf3, 0x3e,
  0x4e, 0xe6, 0x50, 0xbe, 0xeb, 0x30, 0xc4, 0x3f, 0xf0, 0x1e, 0xff, 0x3e,
  0x84, 0xcb, 0x04, 0xbf, 0x44, 0xf7, 0x87, 0xc0, 0xf4, 0x3f, 0xac, 0xbe,
  0xa0, 0x52, 0x8f, 0x3f, 0xc0, 0x36, 0x81, 0xbf, 0xbb, 0xb5, 0x0b, 0xbd,
  0x87, 0xe6, 0x67, 0x3e, 0x04, 0x77, 0x88, 0xc0, 0x74, 0xa5, 0x01, 0x3f,
  0xaa, 0x66, 0x07, 0x3e, 0x37, 0xc2, 0x8f, 0x3f, 0x43, 0x27, 0x20, 0xc0,
  0xbd, 0xd6, 0x37, 0xc0, 0xb4, 0xa6, 0x8e, 0x3e, 0x0f, 0x0f, 0x1d, 0xbf,
  0xaa, 0x0e, 0xda, 0xbf, 0x7f, 0xec, 0xcb, 0xc0, 0xa1, 0xcf, 0x47, 0xbd,
  0xb5, 0xd2, 0xe3, 0xc0, 0x62, 0xe4, 0xdf, 0xbe, 0x09, 0x96, 0x1b, 0xbe,
  0x56, 0x85, 0x3e, 0x3f, 0x3f, 0x0f, 0x26, 0x40, 0xc4, 0xef, 0x91, 0x3e,
  0x44, 0x10, 0x10, 0x3e, 0xf5, 0x3e, 0x0d, 0xbb, 0x01, 0x6e, 0xb6, 0xbf,
  0x5d, 0xa2, 0x4c, 0xc0, 0x47, 0xef, 0x83, 0x3e, 0x16, 0x16, 0xc2, 0x3e,
  0x3d, 0x03, 0xf5, 0x3e, 0x35, 0x82, 0x7b, 0xc0, 0x20, 0xb7, 0x21, 0x40,
  0x8c, 0x88, 0x72, 0xbe, 0x6f, 0xbe, 0x5d, 0x3f, 0x72, 0xbd, 0x97, 0xc0,
  0xc4, 0x95, 0x40, 0xbf, 0x9d, 0x2c, 0xd4, 0xbe, 0x5c, 0x2e, 0xd2, 0x3e,
  0xd5, 0xbf, 0x6a, 0xbd, 0x33, 0x7c, 0x14, 0x40, 0x07, 0x2e, 0x54, 0x3f,
  0xcb, 0x2f, 0x19, 0x3f, 0x7f, 0xc1, 0xc4, 0xbd, 0x45, 0x51, 0xb5, 0x3f,
  0x51, 0xa4, 0x90, 0xbf, 0x32, 0xf7, 0xb9, 0x3e, 0x29, 0xae, 0x84, 0x3e,
  0x46, 0xbd, 0x7e, 0xbd, 0x35, 0xa6, 0xf9, 0x3e, 0xc1, 0x5a, 0x6f, 0x3d,
  0x4f, 0x3f, 0x28, 0xbf, 0x22, 0x60, 0xbd, 0x3e, 0xe0, 0x38, 0xac, 0xbe,
  0xe7, 0xee, 0x6e, 0xc0, 0x74, 0x22, 0x76, 0x3d, 0x7a, 0x4f, 0xae, 0xbe,
  0x55, 0x9a, 0xce, 0xbe, 0xe4, 0x4a, 0xb7, 0xbe, 0xa1, 0x35, 0x83, 0x3e,
  0xc3, 0x92, 0x47, 0xbf, 0xc9, 0xf5, 0xfb, 0x3d, 0x99, 0xee, 0xf5, 0x3e,
  0x38, 0x0c, 0x43, 0x3f, 0xf0, 0xfe, 0xe4, 0xbe, 0xed, 0x16, 0xcb, 0x3e,
  0x9c, 0xd3, 0xf8, 0xbe, 0xdd, 0xe6, 0x4b, 0xbd, 0x23, 0xd0, 0x9b, 0x3e,
  0x37, 0x7a, 0x8d, 0x3e, 0xc0, 0x33, 0x9b, 0x3d, 0xa8, 0x08, 0x8e, 0x3e,
  0x44, 0x86, 0x75, 0x3e, 0x73, 0x3c, 0x20, 0x3f, 0x92, 0x0d, 0x5d, 0xbe,
  0x17, 0x3e, 0x70, 0x3f, 0xc8, 0x6d, 0x2d, 0x3c, 0x0a, 0xdf, 0x60, 0xbe,
  0xf3, 0x8a, 0xa9, 0xbe, 0x00, 0x14, 0x27, 0xbf, 0xc3, 0xad, 0xa8, 0xbe,
  0xca, 0xf3, 0xa9, 0x3e, 0x8f, 0x7a, 0xbd, 0xc0, 0xd6, 0x02, 0xe4, 0xbe,
  0x07, 0xda, 0x40, 0x3e, 0xf4, 0xb7, 0x96, 0x3e, 0x9d, 0xdc, 0xde, 0xbf,
  0xb6, 0x8a, 0x8e, 0x3f, 0xf2, 0x2e, 0x04, 0x3e, 0xcf, 0xeb, 0x59, 0x3e,
  0xf0, 0x4b, 0x52, 0xc0, 0x93, 0xe7, 0x94, 0xbf, 0x89, 0x5f, 0xb9, 0x3d,
  0x8b, 0x0d, 0xa2, 0x3e, 0x41, 0xb0, 0xc4, 0xbe, 0x8a, 0x79, 0x4e, 0x3e,
  0x54, 0x56, 0x1c, 0x3f, 0x74, 0x66, 0xb1, 0x3e, 0x95, 0xd3, 0x12, 0xc0,
  0xdc, 0x82, 0x39, 0xbf, 0xba, 0xb9, 0xe1, 0xbd, 0x3a, 0x0e, 0x79, 0x3e,
  0x17, 0x6e, 0xea, 0x3d, 0x95, 0x61, 0x25, 0x3f, 0x9f, 0x0b, 0xc9, 0x3e,
  0x4a, 0x68, 0x31, 0x3d, 0x28, 0xc7, 0xe5, 0xbe, 0x1a, 0x92, 0xfa, 0x3e,
  0x33, 0xce, 0x1b, 0x3f, 0x0f, 0x7e, 0x03, 0xbf, 0x7b, 0x8d, 0xa6, 0x3e,
  0x64, 0x67, 0xf9, 0xbe, 0x0b, 0xd4, 0xd3, 0xbe, 0x64, 0xdd, 0x05, 0x3d,
  0xd6, 0xdf, 0x3d, 0xbf, 0x47, 0xde, 0x00, 0xbe, 0x3a, 0x17, 0xe1, 0x3d,
  0xca, 0x56, 0xca, 0xbc, 0x65, 0x9b, 0x54, 0x3f, 0xe2, 0x10, 0x0d, 0xbf,
  0xcd, 0x11, 0x9a, 0x3e, 0x40, 0x46, 0x28, 0xbe, 0x21, 0x64, 0xd5, 0x3e,
  0xe0, 0xc8, 0xb0, 0x3e, 0xfb, 0x1b, 0x30, 0xbe, 0x87, 0x88, 0x9e, 0xbe,
  0x66, 0xa5, 0xe0, 0x3d, 0x4a, 0xae, 0xaa, 0x3d, 0xd5, 0x5d, 0xd8, 0xbe,
  0xa6, 0xca, 0x1d, 0x3e, 0xc0, 0x4e, 0xa9, 0xbd, 0x1e, 0x9f, 0x80, 0xbe,
  0x60, 0xbc, 0xd1, 0x3c, 0x94, 0x40, 0xfb, 0x3d, 0xd1, 0x68, 0x86, 0xbd,
  0x4b, 0x7a, 0x18, 0x3f, 0x1e, 0x02, 0x2a, 0x3f, 0x28, 0xa1, 0xd3, 0xbe,
  0x65, 0x98, 0x25, 0xbf, 0xed, 0x3c, 0xca, 0xbc, 0x2a, 0x52, 0x20, 0xbe,
  0x68, 0xc9, 0xe9, 0xbd, 0x43, 0x3c, 0xb1, 0xbe, 0xc9, 0xa9, 0x1d, 0x3f,
  0x94, 0x17, 0x90, 0x3e, 0x0d, 0xbd, 0x15, 0xbd, 0x8b, 0xf3, 0xaf, 0x3e,
  0x95, 0x53, 0x48, 0x3f, 0xb7, 0x1f, 0x14, 0x3d, 0x72, 0xfb, 0xa4, 0xbe,
  0x4a, 0x5b, 0x0f, 0x3f, 0x49, 0x46, 0x14, 0xbf, 0x50, 0x18, 0x3b, 0x3e,
  0x22, 0x52, 0x0d, 0x3f, 0xb4, 0x73, 0x91, 0xbe, 0x3c, 0xcb, 0x39, 0x3f,
  0xeb, 0x10, 0xac, 0x3d, 0xcb, 0xb2, 0xd3, 0xbe, 0x0a, 0xf5, 0x22, 0x3e,
  0x86, 0xc6, 0xa7, 0x3d, 0x50, 0x15, 0x91, 0xbf, 0x56, 0x3a, 0x01, 0xbe,
  0x2d, 0x12, 0x38, 0x3f, 0xe6, 0xa2, 0x90, 0x3e, 0xe2, 0x4c, 0x97, 0xbf,
  0x92, 0x21, 0x2a, 0xbf, 0xdc, 0x3d, 0x5b, 0x3e, 0xa9, 0xe5, 0x68, 0xbf,
  0x10, 0x2e, 0x4d, 0xbe, 0xd3, 0x56, 0x21, 0x3f, 0xfc, 0xc2, 0xcb, 0x3e,
  0xac, 0xf3, 0x27, 0x3e, 0xc3, 0x49, 0x52, 0xbf, 0xa8, 0xaf, 0xc2, 0x3d,
  0x6e, 0x82, 0x13, 0x3e, 0xc1, 0xc9, 0x81, 0xbe, 0x61, 0xd0, 0xa3, 0x3f,
  0x3d, 0x3c, 0x2c, 0xbf, 0x01, 0x92, 0x7d, 0x3e, 0xe3, 0x25, 0xbc, 0xbe,
  0xf9, 0x8e, 0xa4, 0x3e, 0x5a, 0xe0, 0xb4, 0x3e, 0x9a, 0x74, 0xa7, 0x3f,
  0xca, 0xc0, 0x80, 0x3f, 0x2b, 0x0f, 0xaf, 0x3e, 0x18, 0xf2, 0x97, 0x3f,
  0x3c, 0xc0, 0x18, 0xbe, 0xe5, 0xc5, 0xba, 0xbf, 0x71, 0x36, 0xae, 0xbd,
  0xbc, 0x18, 0x8f, 0xbe, 0xcf, 0x17, 0x04, 0x3f, 0x28, 0x51, 0x9c, 0x3b,
  0x35, 0x99, 0x9b, 0x3e, 0xb7, 0x6f, 0xc2, 0x3d, 0x0f, 0x03, 0xb4, 0x3e,
  0x5b, 0x47, 0x1f, 0x3f, 0x4c, 0x09, 0x2d, 0xbe, 0x13, 0x63, 0x83, 0x3e,
  0x7b, 0x7f, 0x1e, 0x3d, 0x4d, 0x48, 0x54, 0xbf, 0x84, 0x27, 0x5b, 0xbc,
  0x09, 0x09, 0x07, 0xbe, 0x6c, 0x82, 0xfb, 0xbd, 0xe3, 0x4b, 0x94, 0x3e,
  0xec, 0x46, 0x6a, 0xbf, 0xff, 0xc3, 0xb5, 0xbb, 0xce, 0x3c, 0xc4, 0xbe,
  0xa4, 0x78, 0x82, 0x3e, 0xcc, 0x5e, 0x4e, 0x3e, 0x85, 0xfb, 0xb3, 0x3e,
  0xe2, 0x9f, 0x79, 0xbf, 0x27, 0x28, 0xb6, 0xbe, 0x10, 0xbe, 0x21, 0x3e,
  0x57, 0x48, 0x40, 0x3d, 0xf6, 0x0f, 0x00, 0x3f, 0xdc, 0x8e, 0xef, 0xbd,
  0x48, 0xe4, 0x1d, 0x3d, 0x61, 0x2f, 0x77, 0xbe, 0x18, 0x9f, 0xda, 0x3e,
  0x23, 0x88, 0xb4, 0xbe, 0x67, 0x7b, 0x1a, 0x3e, 0x4b, 0x83, 0x3b, 0xbd,
  0x0d, 0xcb, 0x68, 0x3e, 0x9b, 0xfd, 0x42, 0x3e, 0x37, 0x37, 0x25, 0xbe,
  0xc7, 0x8f, 0x73, 0xbd, 0xaf, 0xb0, 0x05, 0x3e, 0x89, 0x53, 0xb5, 0x3e,
  0x8c, 0x74, 0x81, 0x3e, 0x0d, 0xf4, 0xa7, 0x3e, 0x27, 0x7e, 0x6e, 0x3f,
  0xea, 0x1e, 0x9b, 0xbe, 0xd2, 0xb9, 0x37, 0x3e, 0xdc, 0x6f, 0x64, 0xbe,
  0x56, 0x48, 0x33, 0xbd, 0x01, 0x72, 0x2c, 0x3d, 0x61, 0x49, 0x9e, 0xbe,
  0x0f, 0x33, 0x81, 0xbe, 0x26, 0x32, 0xa2, 0xbe, 0x43, 0x09, 0x1c, 0x3f,
  0xeb, 0x3e, 0x9f, 0xbe, 0x7f, 0xc8, 0x26, 0x3e, 0x46, 0xdc, 0xa2, 0x3e,
  0xa1, 0x64, 0x5e, 0x3e, 0x2a, 0x38, 0xdb, 0x3c, 0x30, 0x06, 0x1d, 0xbe,
  0x88, 0x5d, 0x74, 0x3f, 0x8f, 0xf8, 0x4a, 0xbf, 0xf8, 0x02, 0xff, 0x3d,
  0x5b, 0x15, 0xe5, 0xbe, 0x75, 0x6f, 0xb3, 0x3e, 0x63, 0x48, 0xe4, 0x3e,
  0x56, 0x50, 0x83, 0x3b, 0xfc, 0x3a, 0x68, 0x3e, 0xcc, 0xa6, 0x34, 0xbe,
  0xe8, 0xc4, 0xf3, 0xbe, 0x52, 0x81, 0xe8, 0xbd, 0x0b, 0x79, 0x37, 0xbe,
  0xf0, 0xe5, 0x0a, 0x3f, 0x3e, 0x77, 0xca, 0x3d, 0x79, 0x58, 0x92, 0x3e,
  0xba, 0xdc, 0x7a, 0x3e, 0x17, 0x86, 0xa1, 0xbb, 0xdf, 0x0b, 0x90, 0x3e,
  0x9e, 0xb8, 0x86, 0x3e, 0x59, 0x59, 0x19, 0xbf, 0x43, 0x30, 0x21, 0x3e,
  0xcc, 0xc2, 0xa7, 0xbe, 0x2d, 0x92, 0x24, 0x3e, 0xb6, 0xbd, 0x71, 0x3d,
  0xb4, 0xc8, 0xf6, 0x3d, 0x71, 0x56, 0x71, 0xbe, 0x1e, 0x60, 0x8c, 0x3e,
  0xdd, 0xfd, 0x07, 0x3e, 0x8b, 0xa0, 0x89, 0xbd, 0xec, 0x7d, 0x0d, 0x3d,
  0x8a, 0xd9, 0x70, 0x3e, 0x4c, 0xd9, 0xb5, 0xbd, 0xb9, 0xb6, 0x17, 0xbd,
  0x3f, 0xc0, 0x19, 0xbf, 0xda, 0x32, 0xae, 0x3d, 0xca, 0xf7, 0xf2, 0x3e,
  0x2c, 0xd6, 0xc9, 0x3f, 0x57, 0x66, 0xef, 0x3e, 0xd8, 0x6e, 0x15, 0x3e,
  0x20, 0x59, 0x75, 0xbe, 0xa8, 0x69, 0xc5, 0x3e, 0x83, 0xef, 0x4d, 0x3e,
  0x05, 0xb4, 0x21, 0xbf, 0xa0, 0xae, 0x0a, 0xbe, 0x91, 0x7b, 0xce, 0x3f,
  0x42, 0x68, 0x8a, 0xbd, 0x7d, 0xf3, 0xd6, 0xbe, 0xb8, 0x5d, 0x93, 0x3d,
  0x4f, 0xd1, 0xa1, 0x3e, 0xdf, 0x4e, 0xeb, 0xbe, 0x80, 0xd8, 0xb0, 0xbd,
  0x86, 0x26, 0x22, 0xbe, 0xd1, 0xec, 0x8f, 0x3e, 0x1b, 0xe9, 0x45, 0xbe,
  0x22, 0x75, 0xdd, 0xbe, 0x0b, 0x2e, 0x94, 0x3e, 0x54, 0xe4, 0x7e, 0x3e,
  0x33, 0xd6, 0x02, 0xbe, 0x7e, 0x96, 0xbf, 0x3f, 0x34, 0x9a, 0xd2, 0x3d,
  0x9e, 0xf3, 0x17, 0x3f, 0x33, 0x63, 0x51, 0xbe, 0xab, 0x43, 0x1b, 0xbe,
  0x90, 0xc7, 0x9a, 0x3d, 0xf4, 0x7a, 0x08, 0xbf, 0x15, 0x72, 0xbe, 0x3e,
  0x06, 0x45, 0x34, 0xbc, 0x25, 0x85, 0x6f, 0x3f, 0x06, 0x7f, 0xd1, 0x3e,
  0x50, 0x2e, 0xe8, 0xbe, 0x79, 0x6c, 0x97, 0xbe, 0x36, 0x7c, 0x37, 0x3e,
  0xcf, 0xce, 0xc7, 0xbd, 0xce, 0x0e, 0xec, 0xbe, 0x98, 0x70, 0x8e, 0x3e,
  0x4f, 0x82, 0x21, 0x3d, 0x11, 0x32, 0x8b, 0x3e, 0xe3, 0x98, 0x62, 0x3f,
  0x40, 0x69, 0x3b, 0xbe, 0xe4, 0xc6, 0x36, 0xbe, 0xf4, 0x89, 0xf2, 0xbc,
  0x6e, 0xec, 0xd9, 0xbd, 0x16, 0xe1, 0x37, 0x3e, 0xc0, 0xa9, 0x24, 0x3d,
  0x95, 0x93, 0x6e, 0x3e, 0x1c, 0xd2, 0x5e, 0x3e, 0x07, 0xef, 0x3c, 0xbd,
  0x87, 0x4f, 0x16, 0x3f, 0x90, 0x99, 0x45, 0x3c, 0x19, 0x9b, 0x4a, 0xbe,
  0xd9, 0x2f, 0xb5, 0xbd, 0x58, 0xf9, 0xb4, 0xbd, 0x70, 0x37, 0x5c, 0x3d,
  0xca, 0xe6, 0xec, 0xbd, 0x37, 0xea, 0x6d, 0x3e, 0xb6, 0x1f, 0xbd, 0xbd,
  0x07, 0x1a, 0xd5, 0x3e, 0x5f, 0xbb, 0xc4, 0x3d, 0x25, 0xb8, 0xc7, 0x3e,
  0x78, 0x46, 0x04, 0x3f, 0xaf, 0x62, 0x85, 0x3e, 0x9e, 0x10, 0x1f, 0x3e,
  0x69, 0x02, 0x94, 0x3e, 0xaf, 0x58, 0x58, 0xbe, 0x77, 0xed, 0x90, 0xbe,
  0xd6, 0xaf, 0xf3, 0xbc, 0x5d, 0x15, 0xe2, 0x3c, 0xd4, 0x27, 0x4e, 0x3e,
  0x5a, 0xb1, 0x94, 0xbe, 0x49, 0x0c, 0x5f, 0xbd, 0xfe, 0xdd, 0x95, 0x3d,
  0x2d, 0x24, 0x29, 0x3f, 0x89, 0x04, 0x7c, 0x3f, 0xe1, 0xc0, 0x00, 0x3e,
  0x52, 0xa6, 0xa2, 0xbd, 0x99, 0x37, 0xdb, 0x3e, 0xbb, 0xce, 0x3e, 0xbf,
  0x0e, 0xdc, 0xb0, 0x3d, 0x8b, 0x9c, 0xc5, 0xbd, 0xd4, 0xa5, 0x69, 0x3c,
  0x60, 0x77, 0xc8, 0x3e, 0x0c, 0x2a, 0x04, 0x3f, 0xb8, 0xe3, 0x3c, 0xbf,
  0xb4, 0x2e, 0x4e, 0x3e, 0x29, 0x0f, 0xc2, 0x3d, 0x0d, 0x43, 0x0c, 0x3f,
  0x06, 0xab, 0xfe, 0xbe, 0x04, 0xf7, 0xcd, 0xbd, 0xab, 0xf0, 0x3f, 0xc0,
  0x97, 0x33, 0x3c, 0xbe, 0x9f, 0x87, 0x03, 0xbf, 0x5d, 0xc1, 0xcb, 0xbe,
  0x61, 0xce, 0x0c, 0x3d, 0xc9, 0x9f, 0x8c, 0x3f, 0xf4, 0xf7, 0x44, 0x3e,
  0xca, 0xe9, 0x4c, 0x3f, 0x75, 0x2a, 0xf0, 0xbe, 0xd6, 0xee, 0xc9, 0xbc,
  0xbc, 0x34, 0x1c, 0xbf, 0xc0, 0xcf, 0x82, 0xbf, 0x14, 0x76, 0xe6, 0xbe,
  0xd1, 0x53, 0xa5, 0x3d, 0xc9, 0x17, 0x8c, 0xbf, 0x61, 0x18, 0x84, 0x3e,
  0x0d, 0xfc, 0x34, 0x3f, 0xec, 0x98, 0xd4, 0x3e, 0x14, 0xd4, 0x88, 0x3e,
  0xd0, 0x89, 0x5e, 0xbf, 0xb8, 0x78, 0x49, 0x3e, 0x7f, 0x86, 0x20, 0xbf,
  0x79, 0xd5, 0x4a, 0x3f, 0xe4, 0xbb, 0xbe, 0x3b, 0x34, 0x84, 0x00, 0x3f,
  0x07, 0x66, 0x92, 0xbf, 0x04, 0x83, 0xb4, 0x3e, 0x53, 0x3f, 0x89, 0x3d,
  0xb3, 0x3e, 0x66, 0xbe, 0x39, 0x1c, 0xad, 0xbe, 0xe8, 0x34, 0xf1, 0x3e,
  0x7a, 0xb5, 0x9a, 0x3e, 0x42, 0xdf, 0x5b, 0xbf, 0x8b, 0x63, 0x1b, 0xbf,
  0x0a, 0x16, 0x08, 0xbf, 0xe8, 0x29, 0xec, 0x3c, 0xdc, 0x4c, 0xcd, 0xbf,
  0xdd, 0xb1, 0x00, 0xbe, 0x1d, 0x5e, 0xe6, 0x3e, 0x08, 0x5f, 0x0a, 0xbf,
  0xf8, 0xd5, 0xc5, 0x3e, 0xc5, 0xfa, 0xde, 0x3e, 0x0b, 0x70, 0xed, 0xbd,
  0x92, 0x43, 0xe0, 0x3d, 0xef, 0x3a, 0x8d, 0xbd, 0x52, 0xbd, 0xc2, 0xbe,
  0x11, 0x1e, 0x2a, 0xbe, 0xba, 0x1f, 0xe0, 0xbc, 0x9a, 0x78, 0x9b, 0xbe,
  0x73, 0xb6, 0xeb, 0xbe, 0xdc, 0xb9, 0xc0, 0xbe, 0x65, 0x23, 0x94, 0xbd,
  0xb1, 0xa8, 0x55, 0xbd, 0xff, 0x5c, 0x8c, 0x3e, 0x14, 0x2d, 0xeb, 0xbd,
  0x6e, 0xf7, 0xf4, 0xbe, 0x0f, 0x3e, 0x15, 0x3f, 0xa5, 0x26, 0x05, 0x3f,
  0x33, 0xc0, 0xaa, 0xbd, 0xac, 0x1f, 0x0d, 0x3e, 0xc3, 0x4a, 0xcf, 0x3e,
  0x6e, 0x4f, 0xfe, 0x3e, 0xec, 0x61, 0x74, 0xbf, 0x7c, 0x17, 0x79, 0x3e,
  0xf8, 0x8e, 0x89, 0xbf, 0x6f, 0x22, 0x86, 0xbe, 0x6b, 0xf9, 0x6b, 0xbf,
  0xab, 0xd4, 0xce, 0x3e, 0xa3, 0x8b, 0xc2, 0xbd, 0x4f, 0x15, 0x99, 0x3d,
  0xe3, 0x3d, 0xa8, 0x3e, 0xdd, 0x82, 0xa0, 0x3e, 0x0e, 0xba, 0x9d, 0xbe,
  0xd0, 0xed, 0x10, 0xbe, 0xac, 0x9c, 0xbb, 0x3d, 0xd0, 0x8d, 0x0d, 0x3e,
  0xe7, 0xd4, 0xb8, 0xbe, 0x37, 0x93, 0x99, 0xbe, 0xb3, 0x0d, 0x26, 0x3c,
  0xc2, 0xb2, 0xab, 0xbe, 0x39, 0x18, 0x17, 0x3f, 0x1e, 0x59, 0x85, 0x3d,
  0x0b, 0xc4, 0x4f, 0x3e, 0x4a, 0x68, 0x95, 0x3e, 0xd0, 0x0d, 0x54, 0x3d,
  0x80, 0x83, 0xa2, 0x3c, 0xe0, 0xcb, 0x1b, 0x3e, 0x89, 0xde, 0x2a, 0x3e,
  0x49, 0x29, 0xa2, 0x3e, 0x88, 0x70, 0x49, 0xbf, 0x00, 0x39, 0x41, 0xbd,
  0x17, 0x32, 0xc6, 0x3d, 0x97, 0xb6, 0x15, 0x3e, 0x15, 0x9a, 0xa7, 0xbd,
  0x53, 0x0f, 0x89, 0x3e, 0x78, 0xad, 0x3c, 0xbf, 0x24, 0xb5, 0x22, 0xbe,
  0xb5, 0x9b, 0xad, 0x3e, 0xae, 0x01, 0x34, 0x3e, 0x68, 0x60, 0x30, 0x3e,
  0x4d, 0xb7, 0x39, 0xbf, 0xfa, 0x45, 0x5c, 0xbc, 0xcf, 0xe8, 0x93, 0x3e,
  0x8d, 0xc9, 0x0f, 0xbe, 0x46, 0x20, 0xc2, 0xbd, 0x5d, 0xe2, 0x38, 0xbe,
  0xd1, 0xf6, 0x05, 0xbe, 0x6a, 0x2f, 0x48, 0xbd, 0xb4, 0x64, 0x6f, 0xbf,
  0x5e, 0x55, 0x0b, 0xbf, 0xc8, 0xda, 0xa8, 0xbd, 0xb6, 0x57, 0xa6, 0x3e,
  0xfe, 0xbc, 0xa9, 0xbd, 0x0c, 0x95, 0x3f, 0xbe, 0xd3, 0x53, 0x9d, 0xbe,
  0x70, 0x38, 0xa7, 0x3d, 0x15, 0xe9, 0xf4, 0x3d, 0xb2, 0xca, 0xe3, 0x3e,
  0x48, 0x02, 0xde, 0xbe, 0x97, 0x34, 0x01, 0x3e, 0x99, 0xb1, 0xdf, 0x3e,
  0x10, 0x97, 0x1f, 0xbe, 0x08, 0x32, 0x37, 0x3e, 0x20, 0x68, 0x01, 0x3e,
  0xbb, 0x88, 0x1d, 0x3e, 0x28, 0x44, 0x06, 0xbe, 0xc2, 0x91, 0x27, 0xbe,
  0x5d, 0xb2, 0x5f, 0xbe, 0x8b, 0x87, 0x08, 0xbd, 0xc8, 0xba, 0xe7, 0x3b,
  0x28, 0xa0, 0xd3, 0x3c, 0xe6, 0xaf, 0xec, 0xbd, 0x10, 0x92, 0xf6, 0xbd,
  0x2a, 0xb7, 0x07, 0xbc, 0x40, 0xa2, 0x1e, 0xbe, 0x88, 0xe2, 0xc5, 0xbc,
  0x59, 0x7d, 0x06, 0x3e, 0x0e, 0x6b, 0x4c, 0xbe, 0x2f, 0xf3, 0xb7, 0xbd,
  0xc3, 0xee, 0x50, 0xbe, 0x7c, 0xa2, 0x57, 0x3d, 0xb8, 0x83, 0x72, 0xbe,
  0x94, 0x32, 0x30, 0xbe, 0x83, 0xc1, 0x6f, 0xbe, 0xe4, 0x31, 0x88, 0xbe,
  0x94, 0xdf, 0x17, 0xbd, 0x72, 0x27, 0x7c, 0x3d, 0x5b, 0x5d, 0x80, 0xbe,
  0xec, 0x90, 0x5f, 0xbe, 0x08, 0xd1, 0x2c, 0xbc, 0x6c, 0xc3, 0x2e, 0xbd,
  0x49, 0xb1, 0x98, 0x3d, 0x4b, 0x61, 0x41, 0xbd, 0xfd, 0x38, 0x8f, 0x3d,
  0xe0, 0x00, 0xbd, 0x3c, 0xd1, 0x9d, 0x42, 0xbe, 0xea, 0x70, 0xc5, 0x3b,
  0xce, 0x87, 0x82, 0xbd, 0x06, 0xc9, 0xb4, 0x3c, 0x1b, 0x11, 0x33, 0x3e,
  0xf4, 0x67, 0x2f, 0x3e, 0x85, 0x19, 0x43, 0x3d, 0x2e, 0x9b, 0x5b, 0xbe,
  0xf0, 0xd2, 0x2e, 0xbe, 0x6f, 0x18, 0x2f, 0xbe, 0xc3, 0x0f, 0xc8, 0x3d,
  0x90, 0xab, 0x45, 0xbe, 0xf3, 0x02, 0x19, 0xbe, 0xfb, 0x77, 0x69, 0xbe,
  0x27, 0xd5, 0xfc, 0x3d, 0x20, 0x15, 0x52, 0x3d, 0x34, 0x45, 0x02, 0x3d,
  0x9c, 0xd6, 0x1a, 0x3d, 0xa8, 0x07, 0x13, 0xbe, 0x03, 0xb6, 0xdb, 0xbd,
  0xfd, 0xe8, 0xa7, 0xbd, 0x28, 0xd2, 0xf7, 0x3d, 0x3a, 0xe4, 0xad, 0x3d,
  0x3f, 0xde, 0xc7, 0xbd, 0x59, 0x7c, 0x28, 0xbd, 0x77, 0x26, 0x6d, 0xbe,
  0xff, 0x38, 0x2e, 0xbe, 0x2e, 0x3f, 0x02, 0xbe, 0x17, 0x07, 0x8c, 0xbd,
  0x73, 0x9e, 0xb8, 0x3d, 0x1b, 0x0e, 0x4d, 0xbe, 0x42, 0x1b, 0x83, 0xbe,
  0x31, 0xe2, 0x4b, 0x3e, 0x4c, 0x2a, 0xfd, 0x3e, 0xcc, 0x26, 0xbe, 0x3e,
  0xdc, 0x1d, 0xeb, 0xbe, 0xc8, 0x22, 0xf2, 0x3e, 0xef, 0xf8, 0xbf, 0xbf,
  0x71, 0x75, 0xb5, 0xbe, 0x55, 0x53, 0x96, 0xbe, 0x0d, 0x00, 0x37, 0xbd,
  0xdb, 0x4b, 0xff, 0xbe, 0xf2, 0xf5, 0x34, 0xbe, 0x66, 0x38, 0xda, 0x3e,
  0xc3, 0xf6, 0x81, 0x3c, 0xdb, 0xa9, 0x9d, 0xbe, 0x01, 0x85, 0xe7, 0x3e,
  0x00, 0x4c, 0xc0, 0x3e, 0xb8, 0xbd, 0xe6, 0x3c, 0xce, 0x9c, 0x7f, 0xbe,
  0x3a, 0xfb, 0x84, 0x3d, 0xcc, 0x4b, 0xeb, 0x3d, 0x4b, 0xac, 0x39, 0x3f,
  0x9f, 0x1b, 0x20, 0xbc, 0x2d, 0x82, 0xea, 0x3e, 0x19, 0x10, 0x98, 0x3d,
  0x85, 0xa0, 0xc0, 0xbd, 0x8d, 0x4d, 0xc6, 0x3c, 0x08, 0xa2, 0xba, 0x3e,
  0xe4, 0x56, 0x22, 0x3f, 0x1b, 0xa1, 0xea, 0xbe, 0xfc, 0x30, 0x86, 0x3e,
  0x47, 0xb4, 0xe3, 0xbe, 0x5f, 0x79, 0xd4, 0x3e, 0xcc, 0xed, 0x80, 0x3e,
  0x91, 0x0e, 0xa9, 0x3d, 0x2d, 0x11, 0xca, 0xbe, 0x97, 0x6b, 0x16, 0x3f,
  0x32, 0x83, 0xcb, 0xbe, 0xa2, 0x3f, 0x0e, 0xbe, 0x6f, 0x65, 0x20, 0x3d,
  0xc3, 0xc5, 0x26, 0x3e, 0x98, 0x44, 0x17, 0x3e, 0x5c, 0x2f, 0x26, 0xc0,
  0xfb, 0x4b, 0x5d, 0xbc, 0x5f, 0x03, 0xcb, 0x3e, 0x16, 0xc7, 0xa0, 0x3b,
  0x10, 0xa2, 0x35, 0xbf, 0xac, 0xb4, 0xd2, 0x3d, 0x90, 0xe7, 0x09, 0x3f,
  0xae, 0x4d, 0x54, 0xbe, 0xfe, 0x9c, 0x2d, 0xc0, 0xd4, 0xc8, 0x5b, 0x3f,
  0x6d, 0x5f, 0x30, 0x3f, 0x58, 0x06, 0x24, 0x3e, 0x45, 0xaa, 0xd9, 0xbe,
  0x64, 0x60, 0x07, 0x3f, 0xfa, 0x51, 0xc7, 0x3e, 0xaa, 0x9c, 0x69, 0xbd,
  0xbb, 0x04, 0xae, 0xbe, 0x2b, 0x8f, 0xbe, 0x3e, 0x04, 0xfc, 0x58, 0x3e,
  0x6b, 0x08, 0xcf, 0x3e, 0x23, 0xe2, 0x25, 0x3e, 0xef, 0x59, 0xf0, 0xbd,
  0x38, 0x78, 0x19, 0xbf, 0x8b, 0x45, 0xb8, 0xbe, 0xb2, 0x56, 0x17, 0x3e,
  0x2a, 0x34, 0x39, 0x3e, 0x9d, 0xaf, 0x8b, 0x3e, 0xc5, 0x7b, 0x8d, 0x3e,
  0x13, 0xfc, 0xa8, 0xc0, 0x1c, 0x87, 0x4a, 0x3e, 0xf6, 0xc6, 0x20, 0xbf,
  0xf8, 0x51, 0x95, 0xbf, 0xe0, 0x45, 0xab, 0xbe, 0x87, 0x02, 0xe8, 0x3e,
  0x85, 0x4c, 0x0f, 0xbc, 0x7e, 0x9c, 0x21, 0x3f, 0x6d, 0x4e, 0x5c, 0x3f,
  0x80, 0xfc, 0x9c, 0x3a, 0xd5, 0x97, 0xb8, 0xbd, 0x92, 0xdc, 0x0c, 0x3f,
  0x53, 0xed, 0x71, 0xbe, 0x4a, 0x99, 0xd0, 0x3e, 0x21, 0xa3, 0x03, 0xbf,
  0x44, 0x10, 0xa5, 0xbe, 0xb8, 0x2e, 0x0b, 0x3f, 0xeb, 0x8a, 0xeb, 0x3d,
  0x30, 0xc4, 0x1c, 0x3f, 0x4e, 0x62, 0x00, 0xbe, 0x8a, 0x38, 0xfa, 0xbd,
  0x3c, 0x51, 0x2b, 0x3f, 0x37, 0x1e, 0x19, 0xbd, 0x23, 0x1d, 0x6c, 0xbe,
  0xa2, 0xd5, 0xc8, 0xbd, 0x14, 0xe4, 0x6a, 0xbf, 0xf0, 0x53, 0x6c, 0xbf,
  0xeb, 0x78, 0xa5, 0x3e, 0x12, 0xb6, 0x33, 0xbf, 0xa3, 0xc8, 0x62, 0xbf,
  0xb9, 0xe8, 0x90, 0x3e, 0xfc, 0xcb, 0x29, 0xbf, 0xc8, 0xf7, 0x7d, 0x3e,
  0x86, 0x2b, 0xc3, 0x3e, 0xe3, 0x1f, 0xb0, 0x3e, 0x3b, 0x7c, 0x9d, 0x3d,
  0x45, 0x9b, 0x8c, 0xbf, 0x06, 0x3e, 0xb4, 0xbe, 0xfd, 0x2b, 0x3d, 0x3f,
  0x3b, 0x7d, 0xdb, 0xbe, 0xfd, 0x23, 0x01, 0xbf, 0x5d, 0xa4, 0x8d, 0xbe,
  0x06, 0xb9, 0x05, 0x3f, 0xd3, 0x4f, 0xa7, 0x3e, 0x2f, 0xed, 0x84, 0xbf,
  0x85, 0x2d, 0x10, 0xc0, 0xdf, 0xa2, 0x6c, 0xbe, 0x35, 0xa0, 0x4e, 0x3e,
  0x68, 0x39, 0xb1, 0x3e, 0x7e, 0x9a, 0xd6, 0xbe, 0xe8, 0x07, 0x9f, 0x3d,
  0xc4, 0xc9, 0xa2, 0xbd, 0x1a, 0xff, 0x4c, 0xbf, 0x08, 0x46, 0xc4, 0x3e,
  0x6a, 0x94, 0x6d, 0x3e, 0x08, 0xe9, 0x49, 0xbd, 0x82, 0xe8, 0x08, 0x3f,
  0x71, 0x25, 0x44, 0xbd, 0x79, 0xa8, 0xcf, 0x3d, 0x53, 0x83, 0x43, 0xbe,
  0x43, 0xa1, 0x4e, 0xbd, 0x71, 0xb4, 0x40, 0xbf, 0xb6, 0x9e, 0xec, 0xbf,
  0x19, 0xe8, 0x0e, 0xbe, 0xcb, 0x0b, 0x9e, 0x40, 0x5c, 0xc6, 0x52, 0x3f,
  0x7c, 0x42, 0x76, 0x3f, 0x83, 0xb4, 0xd3, 0xbf, 0x87, 0x97, 0x1c, 0x3d,
  0x80, 0xbb, 0xba, 0xbf, 0x7f, 0x2c, 0xe3, 0x3e, 0x4d, 0xe2, 0x88, 0xbe,
  0x18, 0x4c, 0x0d, 0xc0, 0xb3, 0x1e, 0xc2, 0x3d, 0x01, 0x31, 0x02, 0x3f,
  0x48, 0xb8, 0x35, 0xbe, 0xc5, 0x22, 0xa5, 0x3e, 0x03, 0x0c, 0xb3, 0x3f,
  0xeb, 0xc9, 0x1a, 0xbd, 0x9b, 0x4b, 0x15, 0x3e, 0x13, 0x7e, 0x07, 0x3e,
  0x46, 0x9c, 0xb6, 0xbf, 0x0a, 0x1d, 0x4b, 0x3f, 0x1d, 0x52, 0x0a, 0x3f,
  0x0a, 0x96, 0x36, 0x3f, 0xaa, 0x49, 0x6c, 0xbf, 0x21, 0xa9, 0x13, 0xbf,
  0x25, 0x3b, 0x5b, 0xbe, 0xb6, 0xa1, 0x36, 0xbf, 0x42, 0xdb, 0xc5, 0xbf,
  0x2b, 0x54, 0xc4, 0xbf, 0x8b, 0xea, 0x54, 0xbd, 0x7c, 0x75, 0xbe, 0xbd,
  0x4a, 0xd3, 0x21, 0xc0, 0xac, 0x53, 0xfc, 0x3c, 0x1f, 0x4b, 0xf4, 0x3d,
  0xd7, 0x74, 0xb2, 0xbf, 0xdb, 0x8f, 0x09, 0xbf, 0x17, 0x55, 0x27, 0x3f,
  0x88, 0x6d, 0x79, 0xbe, 0x8b, 0x89, 0xdf, 0x3e, 0xb4, 0x02, 0x70, 0xbf,
  0x63, 0x25, 0x9d, 0x3e, 0xde, 0x95, 0x07, 0x3e, 0x27, 0xcc, 0x98, 0x3d,
  0x0a, 0x8d, 0x63, 0xbe, 0xa5, 0x0d, 0x42, 0x3f, 0x38, 0x27, 0x80, 0x3d,
  0xe7, 0x7b, 0xa2, 0xbf, 0x7a, 0xf8, 0x7e, 0xbe, 0xd9, 0xa5, 0x39, 0xbe,
  0x8d, 0xb6, 0xe7, 0xbc, 0x2d, 0xb1, 0x1e, 0x3f, 0xeb, 0xcf, 0xff, 0x3e,
  0x8b, 0xc1, 0x39, 0x3f, 0xbb, 0x6c, 0x0f, 0x3f, 0xb1, 0x3a, 0xd5, 0x3e,
  0x18, 0x2b, 0x20, 0xbf, 0x2a, 0x0b, 0xa7, 0x3e, 0x5b, 0xdf, 0xc9, 0xbf,
  0x52, 0x64, 0xc4, 0x3d, 0x6a, 0xa7, 0xdb, 0x3e, 0x18, 0xfc, 0x41, 0x3e,
  0xb0, 0x00, 0xea, 0x3e, 0x4d, 0x5f, 0x22, 0xbe, 0x43, 0xb1, 0x18, 0x3f,
  0x2b, 0x23, 0x6d, 0x3e, 0xe4, 0x24, 0x03, 0x3f, 0xd9, 0x80, 0x9c, 0xbf,
  0x36, 0x8a, 0xd4, 0x3e, 0xd1, 0x15, 0xb0, 0x3d, 0x2a, 0x44, 0x47, 0x3e,
  0xd6, 0xbc, 0x93, 0x3d, 0x3d, 0xa2, 0x9d, 0x3e, 0x7b, 0x00, 0xc4, 0x3e,
  0x65, 0x91, 0x1d, 0x3d, 0x4a, 0xbf, 0x2c, 0x3f, 0x99, 0x78, 0x43, 0x3e,
  0x1d, 0xc0, 0xe6, 0x3e, 0x9b, 0x20, 0xed, 0xbe, 0x17, 0xf0, 0x08, 0x3e,
  0xed, 0x82, 0x45, 0x3e, 0xbb, 0x57, 0x51, 0x3e, 0xfb, 0x8e, 0xf5, 0xbe,
  0x6b, 0x02, 0xc2, 0x3e, 0xc7, 0x30, 0x29, 0xbe, 0x01, 0x96, 0x0c, 0x3f,
  0x6f, 0x14, 0x17, 0xbf, 0xe0, 0xb7, 0x8f, 0x3e, 0xb6, 0x9b, 0x93, 0x3e,
  0x41, 0xd7, 0x9e, 0xbe, 0x60, 0xab, 0x46, 0xbd, 0x5a, 0x21, 0x24, 0xbe,
  0xbd, 0x58, 0x14, 0x3f, 0x52, 0x63, 0xd2, 0x3e, 0x18, 0x3a, 0x5a, 0xbc,
  0xeb, 0xb2, 0xdc, 0xbd, 0xa4, 0x7f, 0x38, 0xbb, 0xe6, 0xc9, 0x48, 0x3e,
  0xc3, 0x46, 0xfa, 0xbd, 0xf7, 0x53, 0x8b, 0x3e, 0x06, 0x3f, 0xd2, 0x3e,
  0x83, 0x64, 0xa4, 0xbe, 0xb9, 0xd1, 0xbb, 0xbd, 0x4f, 0x8f, 0x97, 0x3e,
  0xf3, 0xbe, 0xab, 0x3e, 0x4c, 0x54, 0x15, 0x3f, 0x4f, 0xca, 0x98, 0xbe,
  0x55, 0xba, 0x05, 0x3e, 0x78, 0x40, 0x1d, 0x3f, 0x36, 0x46, 0xad, 0xbd,
  0xd4, 0xd1, 0xc4, 0x3e, 0xdc, 0x08, 0x31, 0x3d, 0x47, 0x5f, 0x8b, 0xbe,
  0x9a, 0x0d, 0x95, 0xbf, 0xf8, 0xf1, 0xc4, 0xbe, 0xb5, 0xae, 0x53, 0x3d,
  0xe1, 0x51, 0x04, 0xbf, 0x1f, 0x8d, 0xf9, 0xbc, 0x00, 0x8d, 0x5c, 0xbf,
  0x54, 0xb9, 0x75, 0x3e, 0x33, 0xf2, 0xb7, 0xbd, 0x47, 0x66, 0x14, 0xbf,
  0x9e, 0x36, 0x08, 0xbe, 0x33, 0x93, 0x0c, 0x3f, 0x9f, 0x2d, 0x80, 0xbe,
  0x63, 0xda, 0x7e, 0xbf, 0x44, 0x3c, 0x98, 0x3e, 0xa4, 0xab, 0x47, 0xbd,
  0x61, 0x91, 0x68, 0xbf, 0xc8, 0xde, 0x06, 0xbe, 0x5f, 0x8c, 0x89, 0x3e,
  0x84, 0xf0, 0x28, 0x3f, 0xaa, 0x8e, 0x58, 0xbf, 0x9e, 0x30, 0x31, 0xbe,
  0x5b, 0x5b, 0xb3, 0xbe, 0x87, 0x52, 0x00, 0x3e, 0x52, 0xfa, 0x41, 0x3e,
  0x28, 0xf6, 0x21, 0xc0, 0x1f, 0xfc, 0xb7, 0x3e, 0x77, 0x30, 0xa7, 0xbe,
  0x2a, 0x61, 0xbd, 0xbf, 0xc7, 0x32, 0x07, 0x3e, 0x9c, 0x60, 0x40, 0x3e,
  0xea, 0xf7, 0x80, 0x3e, 0x69, 0x85, 0x86, 0xbe, 0xfe, 0xd1, 0x18, 0x3e,
  0x72, 0xdf, 0x4d, 0x3e, 0x85, 0xfd, 0x41, 0x3d, 0xe6, 0x32, 0x1c, 0x3f,
  0xbd, 0x76, 0xad, 0x3e, 0x3c, 0x4f, 0x17, 0xbf, 0x8f, 0x26, 0x9c, 0xbf,
  0xea, 0xaa, 0x78, 0xbe, 0xd3, 0xb0, 0xb6, 0x3d, 0xf1, 0x81, 0xc9, 0x3d,
  0x03, 0x62, 0x8e, 0xbd, 0xcd, 0xab, 0xab, 0xbe, 0x6f, 0xf0, 0x81, 0x3e,
  0x4a, 0x5c, 0xeb, 0xbd, 0x02, 0x28, 0x81, 0x3e, 0xe4, 0xb4, 0x5d, 0x3e,
  0x56, 0x95, 0x29, 0xbe, 0xd7, 0xef, 0xba, 0xbe, 0xd4, 0xe4, 0x6e, 0xbf,
  0x16, 0xd1, 0x1e, 0xbf, 0x12, 0xc2, 0xea, 0x3e, 0x79, 0xfb, 0xb1, 0x3e,
  0x67, 0x38, 0x5c, 0xbd, 0xc9, 0x67, 0x63, 0xbe, 0xd8, 0x04, 0xe9, 0xbd,
  0x60, 0xd2, 0x0e, 0xbf, 0xf7, 0xd9, 0xc8, 0x3d, 0xd7, 0x69, 0x04, 0x3f,
  0x14, 0x90, 0x4a, 0xbf, 0x1f, 0xa1, 0x30, 0xbf, 0xa2, 0xb0, 0xb3, 0x3f,
  0x45, 0x72, 0xe5, 0x3d, 0x3a, 0xe7, 0xc4, 0xbe, 0x86, 0x43, 0x20, 0xbf,
  0xa8, 0x43, 0xb5, 0x3e, 0xb9, 0xec, 0x31, 0xbf, 0x41, 0x04, 0x94, 0xbe,
  0x50, 0xad, 0xe4, 0x3e, 0xbd, 0x28, 0x70, 0x3e, 0xea, 0x80, 0x1c, 0xbf,
  0x2c, 0x36, 0xb9, 0xbe, 0x8a, 0xe0, 0x95, 0xbe, 0xde, 0xf6, 0x37, 0x3e,
  0xdb, 0xe9, 0xbf, 0x3e, 0x6d, 0x2b, 0x1b, 0xbe, 0x42, 0xf0, 0x74, 0x3e,
  0x50, 0xba, 0xb6, 0x3a, 0xe1, 0x4b, 0x58, 0xbe, 0x1b, 0xc1, 0xd6, 0xbe,
  0x10, 0x5b, 0x4e, 0x3e, 0x36, 0x18, 0x01, 0x40, 0xfc, 0xda, 0x13, 0xbf,
  0xa7, 0x57, 0x46, 0x3e, 0x5d, 0x95, 0x33, 0xbf, 0xa1, 0x70, 0x70, 0x3e,
  0x18, 0xe2, 0x92, 0x3e, 0x14, 0x0b, 0xd0, 0xbd, 0x38, 0x4b, 0xa7, 0x3e,
  0xe7, 0x89, 0xc1, 0xbc, 0xb9, 0x9b, 0x02, 0xbe, 0xad, 0x9f, 0x00, 0xbe,
  0x02, 0x1a, 0x0b, 0xc0, 0xc4, 0x3e, 0xed, 0xbc, 0xbb, 0x89, 0x04, 0x3f,
  0x08, 0x5d, 0xb7, 0xbf, 0x89, 0xbe, 0x3d, 0xbe, 0xa0, 0xc7, 0x16, 0x3f,
  0xbf, 0x36, 0x45, 0x3e, 0x0b, 0x20, 0xeb, 0x3e, 0xb1, 0xa9, 0x8f, 0xbe,
  0xcc, 0x9f, 0xd9, 0x3e, 0xc9, 0xa5, 0x19, 0xbe, 0x3b, 0xf9, 0x22, 0x3f,
  0x26, 0xfa, 0x26, 0xbe, 0x29, 0x82, 0x6f, 0x3e, 0xa6, 0xc7, 0xae, 0xbd,
  0xa4, 0x36, 0xd7, 0x3e, 0x33, 0x7d, 0x16, 0xbf, 0x6a, 0xce, 0xbf, 0x3e,
  0xf8, 0x5d, 0x65, 0xbe, 0xcb, 0x83, 0x45, 0x3d, 0x3b, 0xe6, 0x94, 0xbd,
  0x57, 0x34, 0x5f, 0xbe, 0x5a, 0xf1, 0xff, 0xbd, 0x96, 0x04, 0x91, 0xbe,
  0x0f, 0x2a, 0x98, 0x3d, 0x33, 0x3a, 0x86, 0xbf, 0x4a, 0xf4, 0x3d, 0xbe,
  0x86, 0x21, 0xc7, 0x3e, 0xf5, 0xb2, 0xc5, 0xbd, 0xd4, 0xc8, 0x9d, 0x3e,
  0x74, 0xc2, 0x3e, 0x3e, 0x43, 0x7f, 0x11, 0xbe, 0x74, 0xce, 0x1e, 0xbf,
  0x9c, 0x0e, 0x0b, 0xbf, 0x48, 0x17, 0x95, 0xbf, 0x17, 0xc3, 0xb1, 0xbe,
  0x1d, 0xac, 0x71, 0xbe, 0x79, 0xa0, 0xd1, 0xbe, 0x2f, 0xa5, 0xb9, 0xbd,
  0xd0, 0xdb, 0xd1, 0x3d, 0x4c, 0x6e, 0x8a, 0x3e, 0x2b, 0xd1, 0x58, 0x3e,
  0xea, 0x8b, 0xed, 0xbe, 0xb2, 0x07, 0xa1, 0xbd, 0x85, 0xe7, 0x50, 0xbe,
  0xb5, 0x58, 0x63, 0x3c, 0x93, 0xf6, 0x8a, 0x3e, 0xda, 0xd2, 0x3e, 0xbf,
  0xb8, 0xca, 0xdc, 0x3e, 0x3c, 0x4a, 0xb6, 0xbb, 0xf0, 0x65, 0xe3, 0xbc,
  0x7c, 0xd5, 0xb4, 0x3e, 0x8c, 0x74, 0x3f, 0xbe, 0x75, 0x11, 0x32, 0xc0,
  0x22, 0x74, 0x40, 0xbe, 0xdf, 0x07, 0x18, 0xbf, 0xac, 0xc5, 0x8f, 0xbe,
  0x87, 0xe2, 0x9c, 0x3e, 0x9c, 0x10, 0x9b, 0x3f, 0xdd, 0xd9, 0x5e, 0x3e,
  0x7f, 0xe4, 0x2f, 0xbd, 0x80, 0x8c, 0x81, 0x3c, 0x97, 0xae, 0x59, 0x3e,
  0xad, 0xad, 0xfe, 0xbe, 0x6e, 0x5c, 0x63, 0xbf, 0x1c, 0xc0, 0xae, 0xbe,
  0x52, 0x53, 0xfe, 0xbe, 0xa1, 0x91, 0x1d, 0xbe, 0x80, 0x04, 0x98, 0x3e,
  0x27, 0xbb, 0xae, 0x3d, 0x98, 0x20, 0x78, 0x3f, 0x25, 0xa3, 0xec, 0x3e,
  0x01, 0x82, 0x1f, 0x3e, 0xea, 0x29, 0x2e, 0x3c, 0xf2, 0xd5, 0xa9, 0xbe,
  0x03, 0xe6, 0x05, 0x3f, 0xc5, 0x5a, 0xdc, 0xbd, 0x52, 0x6f, 0xfc, 0x3d,
  0x8a, 0x41, 0x88, 0xbf, 0x3d, 0x81, 0x1b, 0x3e, 0x97, 0xbb, 0x50, 0x3e,
  0x8a, 0xb4, 0xa2, 0xbe, 0x95, 0x59, 0xf8, 0x3b, 0xbd, 0xb8, 0xb7, 0xbe,
  0x81, 0xa7, 0x0f, 0xbf, 0x9d, 0xa4, 0xda, 0xbe, 0x1c, 0xfc, 0x94, 0x3d,
  0xae, 0x5d, 0x18, 0xbe, 0x17, 0xfa, 0x48, 0xbe, 0x16, 0x9d, 0x66, 0xbf,
  0xc5, 0xf8, 0x48, 0xbe, 0xc0, 0x3d, 0x7e, 0xbe, 0x30, 0x3f, 0x86, 0xbc,
  0x23, 0x79, 0xcb, 0x3e, 0xa8, 0xfb, 0xc0, 0x3e, 0x71, 0x0e, 0xd6, 0xbe,
  0xa3, 0x42, 0x74, 0xbe, 0x84, 0x20, 0x3c, 0x3f, 0x18, 0x10, 0x62, 0xbf,
  0x3d, 0xbb, 0x16, 0xbb, 0xbe, 0x10, 0x66, 0xbe, 0xc6, 0x0a, 0x96, 0xbf,
  0xbe, 0x63, 0x60, 0xbf, 0xa9, 0x94, 0x84, 0xbd, 0xc3, 0x65, 0xe4, 0x3d,
  0x56, 0x1b, 0x5d, 0x3e, 0x0d, 0x06, 0x6b, 0x3e, 0xf1, 0xe7, 0x29, 0x3e,
  0x92, 0x0d, 0xbe, 0xbe, 0xbb, 0x03, 0xdf, 0xbd, 0x80, 0xf1, 0xd1, 0x3e,
  0x0f, 0xb4, 0xc1, 0xbf, 0x7c, 0x6d, 0x18, 0x3f, 0xf5, 0x65, 0x35, 0x3e,
  0x31, 0x9d, 0x06, 0x3e, 0x2a, 0x67, 0x21, 0xbe, 0xee, 0xe4, 0x9f, 0xbe,
  0x11, 0x3b, 0x73, 0xbe, 0x0a, 0xe4, 0x78, 0xbf, 0x46, 0xf4, 0x0d, 0x3f,
  0x11, 0xd5, 0x0a, 0xbf, 0x7f, 0xbf, 0x18, 0x3f, 0xa2, 0x58, 0x63, 0x3f,
  0xb3, 0x25, 0x3f, 0xbe, 0xd1, 0x90, 0x55, 0x3d, 0x41, 0x3d, 0x2c, 0xbe,
  0x0a, 0xf4, 0xba, 0x3d, 0xce, 0x5b, 0x99, 0xbe, 0x0e, 0x2f, 0x28, 0xbe,
  0x2e, 0x24, 0x80, 0x3e, 0xdd, 0xd7, 0x07, 0xbf, 0xe7, 0xba, 0xde, 0x3e,
  0x92, 0x00, 0x03, 0x3e, 0x98, 0x56, 0x3c, 0xbd, 0x7c, 0xd1, 0xf2, 0x3e,
  0x51, 0x13, 0x03, 0x3f, 0x18, 0x6d, 0xc1, 0xbe, 0xc4, 0xe4, 0xc2, 0x3e,
  0xea, 0xf2, 0x8d, 0xbe, 0x51, 0x20, 0xd5, 0x3e, 0x29, 0x82, 0xc8, 0x3d,
  0x57, 0x13, 0x30, 0x3f, 0xff, 0xb1, 0x2f, 0x3d, 0x44, 0x4c, 0x21, 0x3d,
  0xf9, 0x54, 0x32, 0x3e, 0x7a, 0x77, 0xba, 0xbd, 0xf1, 0x57, 0x39, 0xbb,
  0x77, 0xba, 0xb3, 0x3e, 0x16, 0xc8, 0x4a, 0xbf, 0xd5, 0xcc, 0x4e, 0xbf,
  0x70, 0xbc, 0xc1, 0xbd, 0xcf, 0x45, 0x9d, 0x3d, 0x65, 0xb7, 0x8b, 0x3c,
  0x44, 0xbd, 0x05, 0x3e, 0x44, 0x85, 0xcd, 0x3e, 0xd6, 0x6f, 0x0b, 0x3e,
  0x2c, 0x79, 0x5e, 0xbe, 0x53, 0xcf, 0x18, 0x3f, 0x6b, 0x3c, 0x2a, 0x3e,
  0x66, 0x58, 0xe4, 0xbe, 0x5f, 0x87, 0x92, 0x3c, 0xd4, 0x4f, 0x96, 0x3e,
  0x28, 0xfd, 0x81, 0xbe, 0x0e, 0xed, 0x9a, 0xbe, 0x31, 0x38, 0x30, 0xbd,
  0x8b, 0xf3, 0x9f, 0xbe, 0x21, 0x2b, 0xb5, 0xbe, 0xee, 0x0a, 0x85, 0x3d,
  0xd1, 0xb7, 0x0c, 0x3e, 0x2e, 0x6e, 0x95, 0x3e, 0xae, 0x0e, 0xac, 0xbe,
  0x57, 0x4e, 0x31, 0xbf, 0x8c, 0x74, 0xb0, 0x3e, 0x88, 0x2f, 0x50, 0x3e,
  0xc1, 0x0c, 0x41, 0x3d, 0xd1, 0xa8, 0x85, 0x3f, 0x62, 0x59, 0x88, 0x3d,
  0x5d, 0x57, 0x8d, 0x3e, 0xa2, 0x1c, 0x32, 0xbe, 0xb9, 0xe1, 0xff, 0x3e,
  0x40, 0xe1, 0xd0, 0x3d, 0xdf, 0x80, 0x09, 0x3e, 0x7e, 0xc8, 0xb3, 0x3e,
  0xf9, 0x29, 0xfb, 0xbc, 0xd2, 0x1f, 0xf1, 0x3e, 0x99, 0x8b, 0x90, 0x3d,
  0x00, 0x39, 0x17, 0x3e, 0x2a, 0x5a, 0xf1, 0xbd, 0x16, 0xca, 0xe4, 0x3c,
  0x85, 0x28, 0x16, 0x3e, 0x0e, 0x36, 0x10, 0xbe, 0x1e, 0x05, 0x20, 0x3d,
  0x87, 0xfc, 0x46, 0x3e, 0xfb, 0x4e, 0xa0, 0x3e, 0xb7, 0x59, 0xe0, 0x3e,
  0xb9, 0x3a, 0x1c, 0xbe, 0x95, 0x21, 0xde, 0xbd, 0x56, 0x8d, 0x9a, 0x3e,
  0x79, 0xa5, 0xd8, 0xbc, 0x5b, 0x43, 0x10, 0x3d, 0xc5, 0xe7, 0x9f, 0x3e,
  0x4b, 0xe1, 0xb4, 0x3c, 0x78, 0x22, 0x67, 0x3d, 0x86, 0xd8, 0x12, 0x3e,
  0x79, 0x38, 0x03, 0xbd, 0x42, 0xc5, 0xe0, 0xbe, 0x04, 0xec, 0x8b, 0x3e,
  0x7a, 0x0d, 0x6b, 0xbd, 0xf2, 0xac, 0x77, 0x3e, 0xd8, 0x4c, 0xce, 0xbd,
  0x15, 0x68, 0xd4, 0x3d, 0xe8, 0x82, 0xb8, 0x3e, 0x4b, 0xf7, 0x01, 0x3f,
  0x71, 0x28, 0x11, 0x3f, 0x19, 0x49, 0x70, 0x3d, 0x6f, 0xd1, 0x62, 0x3e,
  0xc0, 0x5c, 0xf9, 0x3e, 0x6e, 0x14, 0x5f, 0x3e, 0x37, 0x42, 0x1b, 0xbe,
  0xb1, 0x71, 0x2a, 0xbe, 0xd9, 0x09, 0x4c, 0xbe, 0xa9, 0x3b, 0x3f, 0x3e,
  0xde, 0xb8, 0x3f, 0xbe, 0x6b, 0x2d, 0x83, 0xbc, 0x5d, 0x72, 0xaa, 0x3e,
  0x7d, 0xb7, 0x19, 0xbe, 0x7b, 0x8e, 0xed, 0x3c, 0x58, 0x21, 0xc4, 0xbe,
  0xdb, 0xc9, 0x63, 0x3e, 0xf2, 0x81, 0x93, 0x3f, 0x67, 0x39, 0xc3, 0x3e,
  0x0d, 0x2e, 0xd1, 0xbb, 0xa4, 0x80, 0x95, 0xbe, 0x50, 0x1b, 0xa8, 0x3d,
  0x33, 0xb8, 0xcb, 0x3e, 0xcb, 0x3e, 0x49, 0x3b, 0x91, 0x76, 0x11, 0xbd,
  0xd6, 0x3f, 0x48, 0xbe, 0x4c, 0x3e, 0x06, 0x3f, 0x73, 0x2f, 0xa1, 0xbe,
  0x32, 0xd7, 0xd4, 0xbd, 0xd8, 0x2a, 0xb2, 0x3d, 0xf3, 0x8f, 0xff, 0xbd,
  0xfd, 0xd5, 0x1b, 0x3f, 0xde, 0x3f, 0x1b, 0x3d, 0xaf, 0xd7, 0x60, 0x3e,
  0x09, 0x6d, 0x31, 0x3d, 0x89, 0x47, 0x8d, 0x3e, 0xbc, 0x53, 0x82, 0xbe,
  0x66, 0x7e, 0x1a, 0x3f, 0xff, 0x96, 0xd7, 0x3e, 0x9f, 0x51, 0xd8, 0x3e,
  0x2f, 0xc3, 0xdb, 0xbe, 0x62, 0x1d, 0x92, 0xbd, 0x0b, 0x60, 0xd8, 0x3e,
  0xa4, 0x1c, 0x13, 0xc0, 0xe2, 0x24, 0xe0, 0xbc, 0xe7, 0xae, 0x44, 0xbf,
  0x37, 0x97, 0x86, 0xbf, 0xe7, 0x47, 0x79, 0x3e, 0xf6, 0x95, 0xa8, 0x3e,
  0x01, 0xb6, 0xb4, 0xbf, 0x99, 0xf9, 0x25, 0xbe, 0x8f, 0xea, 0xbe, 0xbd,
  0xed, 0xc7, 0xe3, 0x3e, 0xe7, 0x04, 0xb1, 0xbe, 0xce, 0xb9, 0x56, 0xc0,
  0x26, 0x23, 0x1f, 0xbe, 0xf6, 0x32, 0x86, 0x3e, 0xae, 0xac, 0xb8, 0x3e,
  0xf3, 0x4b, 0x26, 0xbe, 0x08, 0x29, 0x0e, 0xbf, 0x2f, 0x28, 0xc0, 0x3e,
  0xb0, 0x79, 0xe5, 0xbe, 0xcc, 0x6a, 0x8b, 0x3f, 0xcf, 0x73, 0x85, 0x3e,
  0x50, 0x96, 0x18, 0xbf, 0x7c, 0xab, 0x58, 0xbf, 0xc2, 0x3f, 0xf6, 0xbe,
  0xf0, 0x63, 0xfb, 0x3d, 0x85, 0x72, 0x8a, 0x3e, 0x91, 0x01, 0xa4, 0x3e,
  0xa5, 0x2e, 0xaa, 0x3e, 0x1e, 0x40, 0xad, 0xbe, 0x23, 0x65, 0x34, 0x3e,
  0x97, 0x15, 0x32, 0x3f, 0x09, 0xf1, 0xf8, 0xbe, 0x57, 0x9f, 0x08, 0x3e,
  0x51, 0x73, 0xab, 0x3e, 0x22, 0xa7, 0x53, 0x3f, 0x98, 0xc3, 0x39, 0x3e,
  0x57, 0x90, 0x77, 0xbd, 0xd1, 0xe3, 0x56, 0x3e, 0xc5, 0x0b, 0x61, 0xbf,
  0x3e, 0x03, 0xb9, 0xbe, 0xa6, 0xc4, 0x94, 0x3f, 0xad, 0x1f, 0x01, 0xbe,
  0x40, 0x50, 0x3b, 0x3f, 0x3e, 0x8f, 0xd5, 0xbd, 0x13, 0x88, 0xd9, 0xbe,
  0x06, 0x54, 0xab, 0xbe, 0xff, 0x7e, 0x21, 0xbe, 0x6e, 0x99, 0x6b, 0x3e,
  0xbe, 0xd6, 0x63, 0x3e, 0xb2, 0x46, 0xab, 0x3c, 0x11, 0x2d, 0x93, 0xbe,
  0x2b, 0xeb, 0x40, 0x3e, 0x5a, 0x77, 0x7c, 0x3f, 0xc8, 0x75, 0x31, 0x3d,
  0x6b, 0x0a, 0xbe, 0x3e, 0x5d, 0xb6, 0x2b, 0x3f, 0x67, 0x86, 0x8d, 0x3e,
  0x0c, 0x5c, 0x40, 0xbd, 0x6e, 0x55, 0x9d, 0x3e, 0xdf, 0xdf, 0x53, 0x3e,
  0x29, 0x80, 0xb6, 0x3e, 0xf6, 0xab, 0xfe, 0xbd, 0x37, 0xe7, 0x25, 0x3f,
  0x4b, 0xea, 0xc6, 0x3e, 0x9c, 0x3e, 0x3b, 0xbd, 0x9b, 0xae, 0x31, 0xbd,
  0xbb, 0x45, 0x17, 0xbd, 0x94, 0xec, 0x22, 0xbf, 0xfb, 0xbd, 0xf2, 0x3c,
  0x2c, 0x75, 0x25, 0x3f, 0x2c, 0x48, 0x9f, 0xbe, 0xa7, 0x94, 0x90, 0xbd,
  0xc8, 0xf1, 0x3f, 0xbe, 0x0a, 0xc7, 0x20, 0x3d, 0x39, 0x16, 0x8e, 0xbe,
  0x63, 0x2e, 0xc1, 0xbd, 0x3d, 0x44, 0xa7, 0x3e, 0x63, 0x68, 0x4b, 0xbe,
  0xdb, 0xae, 0x34, 0x3e, 0x7c, 0x81, 0xfc, 0x3e, 0x16, 0x2c, 0x65, 0x3e,
  0xe4, 0x6a, 0x53, 0x3e, 0x0e, 0x26, 0xca, 0x3c, 0x0b, 0x18, 0x39, 0x3f,
  0x59, 0x18, 0x2d, 0x3e, 0xac, 0xb7, 0xa0, 0x3e, 0x97, 0x71, 0x5d, 0xbe,
  0xe4, 0x78, 0xa5, 0xbd, 0x97, 0x92, 0x07, 0xbf, 0xdc, 0x73, 0x6b, 0xbe,
  0x00, 0x50, 0xe7, 0x3e, 0x9d, 0x49, 0x12, 0x3e, 0x37, 0xc8, 0x6c, 0xbe,
  0x16, 0x7b, 0xbe, 0xbc, 0x78, 0x33, 0x2e, 0x3f, 0x7f, 0x30, 0x21, 0xbd,
  0xb5, 0xad, 0x5a, 0x3d, 0xf8, 0xc6, 0xa3, 0x3e, 0xc8, 0xf9, 0x69, 0x3f,
  0x01, 0x6a, 0x8d, 0x3e, 0xa7, 0x62, 0x74, 0xbd, 0x8e, 0x22, 0xfb, 0xbe,
  0x0c, 0xcd, 0x59, 0xbf, 0xf5, 0x24, 0x81, 0xbe, 0x0c, 0x7a, 0x88, 0x3e,
  0x31, 0xd8, 0x97, 0xbe, 0xda, 0x89, 0xd5, 0x3e, 0x8b, 0xed, 0x1d, 0x3e,
  0x0e, 0x05, 0x94, 0xbe, 0x19, 0xee, 0x72, 0x3e, 0x48, 0xb0, 0x5d, 0xbe,
  0x9c, 0x85, 0x06, 0x3e, 0x66, 0x7f, 0xa3, 0x3f, 0xd9, 0x9c, 0xba, 0x3b,
  0x06, 0x3d, 0x6b, 0xbe, 0x78, 0xdd, 0x97, 0x3e, 0x13, 0x49, 0x1f, 0x3f,
  0xdf, 0x84, 0xa9, 0x3d, 0xc9, 0xd8, 0xaa, 0x3f, 0x6c, 0x5c, 0x13, 0x3f,
  0x91, 0xdc, 0x56, 0x3f, 0x52, 0x56, 0x69, 0x3f, 0xe4, 0x9d, 0xb6, 0xbf,
  0x73, 0x66, 0x11, 0xbf, 0xeb, 0x8a, 0x88, 0x3e, 0x0f, 0x50, 0x5e, 0xbf,
  0xc7, 0xa7, 0xac, 0x3e, 0x0d, 0xbf, 0x4a, 0x3f, 0x79, 0xea, 0x14, 0x3f,
  0xf5, 0x5f, 0x7b, 0x3e, 0x94, 0x7d, 0xbd, 0xbc, 0xd7, 0x16, 0x16, 0xbf,
  0xbd, 0x8b, 0xbc, 0xbb, 0x7c, 0xed, 0xb8, 0x3e, 0x1f, 0x22, 0x62, 0x3d,
  0x3e, 0x06, 0xcd, 0xbd, 0x36, 0xda, 0xcc, 0xbd, 0x10, 0xd5, 0xf1, 0x3d,
  0x2b, 0x48, 0x91, 0xbe, 0x68, 0x8c, 0x6b, 0xbd, 0xae, 0x88, 0x7e, 0x3e,
  0x5d, 0xb3, 0xca, 0xbe, 0x3d, 0xca, 0x9e, 0x3e, 0x5e, 0x73, 0x76, 0x3f,
  0xb6, 0x21, 0x88, 0x3e, 0xae, 0xd0, 0xb6, 0x3c, 0xdf, 0x54, 0xd8, 0xbe,
  0x7d, 0x41, 0x0c, 0xbf, 0xae, 0xa1, 0x92, 0x3e, 0xb1, 0x29, 0xad, 0x3f,
  0x27, 0xcd, 0xa5, 0xbc, 0xee, 0x53, 0x2e, 0x3e, 0xbd, 0x0b, 0x51, 0xbe,
  0xce, 0x73, 0x95, 0xbe, 0x63, 0x0c, 0x0c, 0xbf, 0x4a, 0x9b, 0x56, 0x3e,
  0x17, 0x50, 0xf6, 0x39, 0x67, 0xf4, 0x8a, 0x3e, 0x4f, 0x82, 0x8f, 0xbe,
  0x11, 0x6f, 0x0e, 0x3f, 0x1a, 0x01, 0xd7, 0x3e, 0x99, 0x40, 0xce, 0xbe,
  0x6f, 0x62, 0xda, 0xbd, 0x71, 0x61, 0x85, 0xbe, 0x07, 0x31, 0x39, 0xbf,
  0x76, 0x01, 0x81, 0xbe, 0x1a, 0xfb, 0xd4, 0xbd, 0x15, 0x39, 0x24, 0xbe,
  0x0c, 0xad, 0x52, 0x3e, 0x62, 0x7d, 0xa8, 0xbd, 0xf2, 0x4c, 0xa7, 0x3f,
  0xc9, 0xa6, 0x28, 0xbe, 0x56, 0xfa, 0x0c, 0xbd, 0xe8, 0xb6, 0x23, 0xbe,
  0xb2, 0x23, 0x2c, 0xbf, 0xde, 0xfc, 0xff, 0xff, 0x04, 0x00, 0x00, 0x00,
  0x80, 0x02, 0x00, 0x00, 0x92, 0x37, 0x50, 0xbf, 0xc6, 0xf0, 0xb3, 0xbe,
  0xcc, 0xee, 0xa9, 0x3f, 0x2c, 0xa8, 0x33, 0x3c, 0x93, 0xca, 0x79, 0xbf,
  0x69, 0xe2, 0x2f, 0x3e, 0xac, 0x28, 0x16, 0x3f, 0xbb, 0xca, 0x89, 0xbe,
  0x10, 0x2e, 0xa9, 0x3f, 0x2d, 0xe9, 0xdd, 0xbf, 0x98, 0x9f, 0x2c, 0xbe,
  0x64, 0x95, 0x87, 0x3f, 0x96, 0x32, 0x31, 0x3f, 0xa3, 0x6b, 0xba, 0xbf,
  0xd4, 0x86, 0x93, 0xbf, 0x5e, 0x5d, 0x4e, 0x3e, 0x2d, 0x5e, 0xc4, 0xbd,
  0x85, 0xf7, 0x83, 0x3e, 0xee, 0x16, 0x6d, 0xbf, 0xef, 0x81, 0xa0, 0x3e,
  0x28, 0xf5, 0xa7, 0xbe, 0x8b, 0xa8, 0x3a, 0x3f, 0xf2, 0xf0, 0xdc, 0x3e,
  0xb3, 0x44, 0xea, 0xbf, 0x9a, 0xbb, 0xae, 0xbf, 0xa4, 0x21, 0x8e, 0x3e,
  0x03, 0xe2, 0x4e, 0x3f, 0x32, 0xf1, 0xab, 0x3e, 0x95, 0x2f, 0x40, 0xbe,
  0x61, 0x4b, 0xba, 0x3e, 0x59, 0x65, 0x9f, 0x3e, 0xb2, 0xa9, 0x3c, 0x3f,
  0x72, 0x90, 0xa9, 0x3e, 0x67, 0xbb, 0x42, 0xbf, 0x95, 0xcd, 0xa6, 0x3f,
  0x2e, 0x6f, 0x09, 0xbf, 0x62, 0xcd, 0x8b, 0x3e, 0x43, 0x66, 0x3a, 0xbf,
  0x70, 0xae, 0xcb, 0xbe, 0xc7, 0xe6, 0xbd, 0x3e, 0x34, 0x71, 0x53, 0x40,
  0x24, 0xa4, 0x0d, 0x3f, 0xfe, 0xce, 0x08, 0x3f, 0xc7, 0x9d, 0x34, 0x40,
  0x09, 0x2f, 0x42, 0x3f, 0x2a, 0xe0, 0xc8, 0xbf, 0x37, 0x8f, 0x03, 0x3f,
  0x14, 0xba, 0x5e, 0xbf, 0x13, 0xa7, 0x8a, 0x3d, 0x12, 0xfe, 0x29, 0xbe,
  0x2d, 0xd1, 0x40, 0x3e, 0x2f, 0x0c, 0x88, 0x3d, 0x96, 0x69, 0x90, 0x3f,
  0x3a, 0x24, 0xfa, 0x3e, 0xb6, 0xe4, 0x09, 0x3f, 0x17, 0xbb, 0xf6, 0xbd,
  0x48, 0xb4, 0xcb, 0xbf, 0x37, 0xf1, 0x06, 0xbe, 0x5b, 0x78, 0x04, 0xbe,
  0x97, 0x91, 0x9c, 0xbf, 0xe4, 0x12, 0xc9, 0xbe, 0xa9, 0xb3, 0x1c, 0xc0,
  0x58, 0x6a, 0x7c, 0xbf, 0x86, 0x0f, 0x09, 0x3e, 0x7e, 0x1e, 0x4b, 0x3d,
  0xa9, 0xf6, 0x89, 0x3f, 0xdd, 0xb5, 0x70, 0xc0, 0x57, 0x1e, 0xd3, 0x3e,
  0x37, 0x19, 0xcf, 0x3f, 0x12, 0xe1, 0x72, 0xbe, 0x78, 0xe7, 0xe0, 0xbe,
  0xec, 0x26, 0x8b, 0xbf, 0x72, 0xe5, 0x64, 0xc0, 0x9c, 0xf1, 0x1b, 0x3f,
  0xcc, 0x19, 0x06, 0x3f, 0x6a, 0xa9, 0x35, 0x3e, 0xda, 0xc7, 0x69, 0xbf,
  0xbe, 0x62, 0x13, 0xbe, 0xef, 0xc3, 0x32, 0x3f, 0xcb, 0xbd, 0x66, 0x3e,
  0x78, 0x78, 0x54, 0x3f, 0x6b, 0x9e, 0x02, 0xc0, 0xeb, 0x8b, 0xda, 0x3c,
  0x31, 0x95, 0x56, 0xbe, 0xdf, 0x57, 0xe7, 0xbe, 0x1a, 0xb5, 0x2b, 0x3e,
  0x98, 0xc2, 0xa8, 0x3f, 0x61, 0xf6, 0x3f, 0x3e, 0x9b, 0x95, 0x0b, 0xbf,
  0x25, 0x03, 0x92, 0xbf, 0x04, 0x04, 0x5b, 0xc0, 0xcd, 0x53, 0xa2, 0xbe,
  0x65, 0x10, 0x15, 0x3f, 0xea, 0x4d, 0x31, 0xbf, 0x21, 0xea, 0x90, 0xbe,
  0x80, 0xd0, 0x8c, 0x3f, 0x23, 0xc7, 0xc8, 0x3e, 0x99, 0xed, 0x52, 0xbf,
  0xae, 0x0b, 0xaf, 0xbe, 0x91, 0xd2, 0x0a, 0xbe, 0xf4, 0x1a, 0x56, 0xbf,
  0x09, 0xbd, 0x7c, 0xbf, 0x85, 0xab, 0x5c, 0x3e, 0x2f, 0x30, 0x78, 0x3f,
  0x1b, 0x89, 0xe1, 0xbf, 0x84, 0x59, 0xab, 0x3e, 0xe7, 0xdc, 0xdc, 0xbf,
  0x91, 0x97, 0x57, 0xc0, 0xd3, 0x79, 0x28, 0xc0, 0xf2, 0x93, 0xa2, 0x3f,
  0x9d, 0x7c, 0xbe, 0x3e, 0x38, 0x16, 0xee, 0x3e, 0x53, 0xc9, 0xa3, 0x3e,
  0x82, 0xb0, 0x83, 0x3f, 0x24, 0xb9, 0x0d, 0x3f, 0x4d, 0xae, 0xd8, 0x3d,
  0xb8, 0xa8, 0x26, 0xbf, 0xaa, 0xb0, 0x04, 0xc0, 0xd3, 0x09, 0xa9, 0x3e,
  0x76, 0x8c, 0x77, 0x3e, 0x64, 0xb2, 0xa3, 0x3f, 0xfd, 0xcf, 0x60, 0x3f,
  0xa1, 0x07, 0x88, 0x3e, 0x77, 0x33, 0x18, 0x3f, 0xed, 0xb8, 0x5e, 0xbd,
  0x3b, 0x20, 0xbd, 0xbf, 0x13, 0x62, 0x95, 0xbe, 0xac, 0xd5, 0x64, 0xbf,
  0xa3, 0x96, 0xbc, 0x3e, 0x5e, 0x9b, 0x13, 0x3f, 0xaa, 0xed, 0xa1, 0x3e,
  0xcd, 0xc1, 0x05, 0x3f, 0xd5, 0x9c, 0x81, 0xbf, 0xeb, 0x0b, 0x85, 0x3f,
  0x29, 0xd5, 0x21, 0xbe, 0xfb, 0x88, 0x30, 0xbe, 0x5f, 0x50, 0x9f, 0xbf,
  0x27, 0x3c, 0xb2, 0x3e, 0xc3, 0xde, 0xaa, 0xbe, 0xa2, 0x8f, 0x7f, 0xc0,
  0xb0, 0xbe, 0xa0, 0x3f, 0xff, 0xa3, 0xb6, 0x3f, 0x79, 0xcd, 0x95, 0xbf,
  0xb1, 0xea, 0x8d, 0x3e, 0x43, 0x19, 0x19, 0xbf, 0x03, 0x5a, 0x9e, 0x3e,
  0xb1, 0x45, 0x95, 0x3d, 0xaf, 0xe3, 0x9b, 0x3e, 0x38, 0xb2, 0xf6, 0xbe,
  0xea, 0x76, 0x26, 0x3f, 0x65, 0xb3, 0x7a, 0xc0, 0x35, 0x3f, 0x29, 0x3f,
  0xab, 0x59, 0xed, 0x3e, 0x04, 0xbb, 0xeb, 0xbe, 0xd9, 0xbb, 0x8b, 0x3f,
  0xd6, 0x7f, 0x07, 0x3f, 0x90, 0xd0, 0x82, 0xbd, 0x49, 0xd1, 0x80, 0x3f,
  0xcb, 0x09, 0x21, 0x3e, 0x47, 0x4f, 0x7c, 0xbf, 0x68, 0xfa, 0xff, 0xff,
  0x6c, 0xfa, 0xff, 0xff, 0x0f, 0x00, 0x00, 0x00, 0x4d, 0x4c, 0x49, 0x52,
  0x20, 0x43, 0x6f, 0x6e, 0x76, 0x65, 0x72, 0x74, 0x65, 0x64, 0x2e, 0x00,
  0x01, 0x00, 0x00, 0x00, 0x14, 0x00, 0x00, 0x00, 0x00, 0x00, 0x0e, 0x00,
  0x18, 0x00, 0x14, 0x00, 0x10, 0x00, 0x0c, 0x00, 0x08, 0x00, 0x04, 0x00,
  0x0e, 0x00, 0x00, 0x00, 0x14, 0x00, 0x00, 0x00, 0x1c, 0x00, 0x00, 0x00,
  0x24, 0x01, 0x00, 0x00, 0x28, 0x01, 0x00, 0x00, 0x2c, 0x01, 0x00, 0x00,
  0x04, 0x00, 0x00, 0x00, 0x6d, 0x61, 0x69, 0x6e, 0x00, 0x00, 0x00, 0x00,
  0x04, 0x00, 0x00, 0x00, 0xcc, 0x00, 0x00, 0x00, 0x84, 0x00, 0x00, 0x00,
  0x50, 0x00, 0x00, 0x00, 0x14, 0x00, 0x00, 0x00, 0x00, 0x00, 0x0e, 0x00,
  0x1a, 0x00, 0x14, 0x00, 0x10, 0x00, 0x0c, 0x00, 0x0b, 0x00, 0x04, 0x00,
  0x0e, 0x00, 0x00, 0x00, 0x1c, 0x00, 0x00, 0x00, 0x00, 0x00, 0x00, 0x09,
  0x1c, 0x00, 0x00, 0x00, 0x20, 0x00, 0x00, 0x00, 0x01, 0x00, 0x00, 0x00,
  0x00, 0x00, 0x06, 0x00, 0x08, 0x00, 0x04, 0x00, 0x06, 0x00, 0x00, 0x00,
  0x00, 0x00, 0x80, 0x3f, 0x01, 0x00, 0x00, 0x00, 0x0a, 0x00, 0x00, 0x00,
  0x01, 0x00, 0x00, 0x00, 0x09, 0x00, 0x00, 0x00, 0x9a, 0xff, 0xff, 0xff,
  0x10, 0x00, 0x00, 0x00, 0x00, 0x00, 0x00, 0x08, 0x0c, 0x00, 0x00, 0x00,
  0x10, 0x00, 0x00, 0x00, 0x30, 0xfb, 0xff, 0xff, 0x01, 0x00, 0x00, 0x00,
  0x09, 0x00, 0x00, 0x00, 0x03, 0x00, 0x00, 0x00, 0x08, 0x00, 0x00, 0x00,
  0x01, 0x00, 0x00, 0x00, 0x03, 0x00, 0x00, 0x00, 0xca, 0xff, 0xff, 0xff,
  0x10, 0x00, 0x00, 0x00, 0x00, 0x00, 0x00, 0x08, 0x10, 0x00, 0x00, 0x00,
  0x14, 0x00, 0x00, 0x00, 0xba, 0xff, 0xff, 0xff, 0x00, 0x00, 0x00, 0x01,
  0x01, 0x00, 0x00, 0x00, 0x08, 0x00, 0x00, 0x00, 0x03, 0x00, 0x00, 0x00,
  0x07, 0x00, 0x00, 0x00, 0x02, 0x00, 0x00, 0x00, 0x04, 0x00, 0x00, 0x00,
  0x00, 0x00, 0x0e, 0x00, 0x16, 0x00, 0x00, 0x00, 0x10, 0x00, 0x0c, 0x00,
  0x0b, 0x00, 0x04, 0x00, 0x0e, 0x00, 0x00, 0x00, 0x18, 0x00, 0x00, 0x00,
  0x00, 0x00, 0x00, 0x08, 0x18, 0x00, 0x00, 0x00, 0x1c, 0x00, 0x00, 0x00,
  0x00, 0x00, 0x06, 0x00, 0x08, 0x00, 0x07, 0x00, 0x06, 0x00, 0x00, 0x00,
  0x00, 0x00, 0x00, 0x01, 0x01, 0x00, 0x00, 0x00, 0x07, 0x00, 0x00, 0x00,
  0x03, 0x00, 0x00, 0x00, 0x00, 0x00, 0x00, 0x00, 0x06, 0x00, 0x00, 0x00,
  0x05, 0x00, 0x00, 0x00, 0x01, 0x00, 0x00, 0x00, 0x0a, 0x00, 0x00, 0x00,
  0x01, 0x00, 0x00, 0x00, 0x00, 0x00, 0x00, 0x00, 0x0b, 0x00, 0x00, 0x00,
  0xf8, 0x03, 0x00, 0x00, 0xa0, 0x03, 0x00, 0x00, 0x48, 0x03, 0x00, 0x00,
  0x0c, 0x03, 0x00, 0x00, 0xd0, 0x02, 0x00, 0x00, 0x74, 0x02, 0x00, 0x00,
  0x20, 0x02, 0x00, 0x00, 0x80, 0x01, 0x00, 0x00, 0xe0, 0x00, 0x00, 0x00,
  0x60, 0x00, 0x00, 0x00, 0x04, 0x00, 0x00, 0x00, 0x4a, 0xfc, 0xff, 0xff,
  0x00, 0x00, 0x00, 0x01, 0x14, 0x00, 0x00, 0x00, 0x1c, 0x00, 0x00, 0x00,
  0x1c, 0x00, 0x00, 0x00, 0x0b, 0x00, 0x00, 0x00, 0x34, 0x00, 0x00, 0x00,
  0x02, 0x00, 0x00, 0x00, 0xff, 0xff, 0xff, 0xff, 0x05, 0x00, 0x00, 0x00,
  0x34, 0xfc, 0xff, 0xff, 0x1b, 0x00, 0x00, 0x00, 0x53, 0x74, 0x61, 0x74,
  0x65, 0x66, 0x75, 0x6c, 0x50, 0x61, 0x72, 0x74, 0x69, 0x74, 0x69, 0x6f,
  0x6e, 0x65, 0x64, 0x43, 0x61, 0x6c, 0x6c, 0x5f, 0x31, 0x3a, 0x30, 0x00,
  0x02, 0x00, 0x00, 0x00, 0x01, 0x00, 0x00, 0x00, 0x05, 0x00, 0x00, 0x00,
  0xa2, 0xfc, 0xff, 0xff, 0x00, 0x00, 0x00, 0x01, 0x14, 0x00, 0x00, 0x00,
  0x1c, 0x00, 0x00, 0x00, 0x1c, 0x00, 0x00, 0x00, 0x0a, 0x00, 0x00, 0x00,
  0x58, 0x00, 0x00, 0x00, 0x02, 0x00, 0x00, 0x00, 0xff, 0xff, 0xff, 0xff,
  0x05, 0x00, 0x00, 0x00, 0x8c, 0xfc, 0xff, 0xff, 0x3e, 0x00, 0x00, 0x00,
  0x73, 0x65, 0x71, 0x75, 0x65, 0x6e, 0x74, 0x69, 0x61, 0x6c, 0x5f, 0x36,
  0x5f, 0x31, 0x2f, 0x64, 0x65, 0x6e, 0x73, 0x65, 0x5f, 0x32, 0x30, 0x5f,
  0x31, 0x2f, 0x4d, 0x61, 0x74, 0x4d, 0x75, 0x6c, 0x3b, 0x73, 0x65, 0x71,
  0x75, 0x65, 0x6e, 0x74, 0x69, 0x61, 0x6c, 0x5f, 0x36, 0x5f, 0x31, 0x2f,
  0x64, 0x65, 0x6e, 0x73, 0x65, 0x5f, 0x32, 0x30, 0x5f, 0x31, 0x2f, 0x41,
  0x64, 0x64, 0x00, 0x00, 0x02, 0x00, 0x00, 0x00, 0x01, 0x00, 0x00, 0x00,
  0x05, 0x00, 0x00, 0x00, 0x1e, 0xfd, 0xff, 0xff, 0x00, 0x00, 0x00, 0x01,
  0x14, 0x00, 0x00, 0x00, 0x1c, 0x00, 0x00, 0x00, 0x1c, 0x00, 0x00, 0x00,
  0x09, 0x00, 0x00, 0x00, 0x78, 0x00, 0x00, 0x00, 0x02, 0x00, 0x00, 0x00,
  0xff, 0xff, 0xff, 0xff, 0x20, 0x00, 0x00, 0x00, 0x08, 0xfd, 0xff, 0xff,
  0x5d, 0x00, 0x00, 0x00, 0x73, 0x65, 0x71, 0x75, 0x65, 0x6e, 0x74, 0x69,
  0x61, 0x6c, 0x5f, 0x36, 0x5f, 0x31, 0x2f, 0x64, 0x65, 0x6e, 0x73, 0x65,
  0x5f, 0x31, 0x39, 0x5f, 0x31, 0x2f, 0x4d, 0x61, 0x74, 0x4d, 0x75, 0x6c,
  0x3b, 0x73, 0x65, 0x71, 0x75, 0x65, 0x6e, 0x74, 0x69, 0x61, 0x6c, 0x5f,
  0x36, 0x5f, 0x31, 0x2f, 0x64, 0x65, 0x6e, 0x73, 0x65, 0x5f, 0x31, 0x39,
  0x5f, 0x31, 0x2f, 0x52, 0x65, 0x6c, 0x75, 0x3b, 0x73, 0x65, 0x71, 0x75,
  0x65, 0x6e, 0x74, 0x69, 0x61, 0x6c, 0x5f, 0x36, 0x5f, 0x31, 0x2f, 0x64,
  0x65, 0x6e, 0x73, 0x65, 0x5f, 0x31, 0x39, 0x5f, 0x31, 0x2f, 0x41, 0x64,
  0x64, 0x00, 0x00, 0x00, 0x02, 0x00, 0x00, 0x00, 0x01, 0x00, 0x00, 0x00,
  0x20, 0x00, 0x00, 0x00, 0xba, 0xfd, 0xff, 0xff, 0x00, 0x00, 0x00, 0x01,
  0x14, 0x00, 0x00, 0x00, 0x1c, 0x00, 0x00, 0x00, 0x1c, 0x00, 0x00, 0x00,
  0x08, 0x00, 0x00, 0x00, 0x78, 0x00, 0x00, 0x00, 0x02, 0x00, 0x00, 0x00,
  0xff, 0xff, 0xff, 0xff, 0x40, 0x00, 0x00, 0x00, 0xa4, 0xfd, 0xff, 0xff,
  0x5d, 0x00, 0x00, 0x00, 0x73, 0x65, 0x71, 0x75, 0x65, 0x6e, 0x74, 0x69,
  0x61, 0x6c, 0x5f, 0x36, 0x5f, 0x31, 0x2f, 0x64, 0x65, 0x6e, 0x73, 0x65,
  0x5f, 0x31, 0x38, 0x5f, 0x31, 0x2f, 0x4d, 0x61, 0x74, 0x4d, 0x75, 0x6c,
  0x3b, 0x73, 0x65, 0x71, 0x75, 0x65, 0x6e, 0x74, 0x69, 0x61, 0x6c, 0x5f,
  0x36, 0x5f, 0x31, 0x2f, 0x64, 0x65, 0x6e, 0x73, 0x65, 0x5f, 0x31, 0x38,
  0x5f, 0x31, 0x2f, 0x52, 0x65, 0x6c, 0x75, 0x3b, 0x73, 0x65, 0x71, 0x75,
  0x65, 0x6e, 0x74, 0x69, 0x61, 0x6c, 0x5f, 0x36, 0x5f, 0x31, 0x2f, 0x64,
  0x65, 0x6e, 0x73, 0x65, 0x5f, 0x31, 0x38, 0x5f, 0x31, 0x2f, 0x41, 0x64,
  0x64, 0x00, 0x00, 0x00, 0x02, 0x00, 0x00, 0x00, 0x01, 0x00, 0x00, 0x00,
  0x40, 0x00, 0x00, 0x00, 0xaa, 0xfe, 0xff, 0xff, 0x00, 0x00, 0x00, 0x01,
  0x10, 0x00, 0x00, 0x00, 0x10, 0x00, 0x00, 0x00, 0x07, 0x00, 0x00, 0x00,
  0x30, 0x00, 0x00, 0x00, 0x30, 0xfe, 0xff, 0xff, 0x20, 0x00, 0x00, 0x00,
  0x73, 0x65, 0x71, 0x75, 0x65, 0x6e, 0x74, 0x69, 0x61, 0x6c, 0x5f, 0x36,
  0x5f, 0x31, 0x2f, 0x64, 0x65, 0x6e, 0x73, 0x65, 0x5f, 0x31, 0x38, 0x5f,
  0x31, 0x2f, 0x4d, 0x61, 0x74, 0x4d, 0x75, 0x6c, 0x00, 0x00, 0x00, 0x00,
  0x02, 0x00, 0x00, 0x00, 0x40, 0x00, 0x00, 0x00, 0x09, 0x00, 0x00, 0x00,
  0xfa, 0xfe, 0xff, 0xff, 0x00, 0x00, 0x00, 0x01, 0x10, 0x00, 0x00, 0x00,
  0x10, 0x00, 0x00, 0x00, 0x06, 0x00, 0x00, 0x00, 0x3c, 0x00, 0x00, 0x00,
  0x80, 0xfe, 0xff, 0xff, 0x2c, 0x00, 0x00, 0x00, 0x73, 0x65, 0x71, 0x75,
  0x65, 0x6e, 0x74, 0x69, 0x61, 0x6c, 0x5f, 0x36, 0x5f, 0x31, 0x2f, 0x64,
  0x65, 0x6e, 0x73, 0x65, 0x5f, 0x31, 0x38, 0x5f, 0x31, 0x2f, 0x41, 0x64,
  0x64, 0x2f, 0x52, 0x65, 0x61, 0x64, 0x56, 0x61, 0x72, 0x69, 0x61, 0x62,
  0x6c, 0x65, 0x4f, 0x70, 0x00, 0x00, 0x00, 0x00, 0x01, 0x00, 0x00, 0x00,
  0x40, 0x00, 0x00, 0x00, 0x52, 0xff, 0xff, 0xff, 0x00, 0x00, 0x00, 0x01,
  0x10, 0x00, 0x00, 0x00, 0x10, 0x00, 0x00, 0x00, 0x05, 0x00, 0x00, 0x00,
  0x1c, 0x00, 0x00, 0x00, 0xd8, 0xfe, 0xff, 0xff, 0x0f, 0x00, 0x00, 0x00,
  0x61, 0x72, 0x69, 0x74, 0x68, 0x2e, 0x63, 0x6f, 0x6e, 0x73, 0x74, 0x61,
  0x6e, 0x74, 0x33, 0x00, 0x01, 0x00, 0x00, 0x00, 0x20, 0x00, 0x00, 0x00,
  0x8a, 0xff, 0xff, 0xff, 0x00, 0x00, 0x00, 0x01, 0x10, 0x00, 0x00, 0x00,
  0x10, 0x00, 0x00, 0x00, 0x04, 0x00, 0x00, 0x00, 0x1c, 0x00, 0x00, 0x00,
  0x10, 0xff, 0xff, 0xff, 0x0f, 0x00, 0x00, 0x00, 0x61, 0x72, 0x69, 0x74,
  0x68, 0x2e, 0x63, 0x6f, 0x6e, 0x73, 0x74, 0x61, 0x6e, 0x74, 0x32, 0x00,
  0x01, 0x00, 0x00, 0x00, 0x05, 0x00, 0x00, 0x00, 0xc2, 0xff, 0xff, 0xff,
  0x00, 0x00, 0x00, 0x01, 0x10, 0x00, 0x00, 0x00, 0x10, 0x00, 0x00, 0x00,
  0x03, 0x00, 0x00, 0x00, 0x1c, 0x00, 0x00, 0x00, 0x48, 0xff, 0xff, 0xff,
  0x0f, 0x00, 0x00, 0x00, 0x61, 0x72, 0x69, 0x74, 0x68, 0x2e, 0x63, 0x6f,
  0x6e, 0x73, 0x74, 0x61, 0x6e, 0x74, 0x31, 0x00, 0x02, 0x00, 0x00, 0x00,
  0x20, 0x00, 0x00, 0x00, 0x40, 0x00, 0x00, 0x00, 0x00, 0x00, 0x16, 0x00,
  0x18, 0x00, 0x14, 0x00, 0x00, 0x00, 0x10, 0x00, 0x0c, 0x00, 0x08, 0x00,
  0x00, 0x00, 0x00, 0x00, 0x00, 0x00, 0x07, 0x00, 0x16, 0x00, 0x00, 0x00,
  0x00, 0x00, 0x00, 0x01, 0x10, 0x00, 0x00, 0x00, 0x10, 0x00, 0x00, 0x00,
  0x02, 0x00, 0x00, 0x00, 0x1c, 0x00, 0x00, 0x00, 0x9c, 0xff, 0xff, 0xff,
  0x0e, 0x00, 0x00, 0x00, 0x61, 0x72, 0x69, 0x74, 0x68, 0x2e, 0x63, 0x6f,
  0x6e, 0x73, 0x74, 0x61, 0x6e, 0x74, 0x00, 0x00, 0x02, 0x00, 0x00, 0x00,
  0x05, 0x00, 0x00, 0x00, 0x20, 0x00, 0x00, 0x00, 0x00, 0x00, 0x16, 0x00,
  0x1c, 0x00, 0x18, 0x00, 0x00, 0x00, 0x14, 0x00, 0x10, 0x00, 0x0c, 0x00,
  0x00, 0x00, 0x00, 0x00, 0x08, 0x00, 0x07, 0x00, 0x16, 0x00, 0x00, 0x00,
  0x00, 0x00, 0x00, 0x01, 0x14, 0x00, 0x00, 0x00, 0x20, 0x00, 0x00, 0x00,
  0x20, 0x00, 0x00, 0x00, 0x01, 0x00, 0x00, 0x00, 0x3c, 0x00, 0x00, 0x00,
  0x02, 0x00, 0x00, 0x00, 0xff, 0xff, 0xff, 0xff, 0x09, 0x00, 0x00, 0x00,
  0x04, 0x00, 0x04, 0x00, 0x04, 0x00, 0x00, 0x00, 0x1f, 0x00, 0x00, 0x00,
  0x73, 0x65, 0x72, 0x76, 0x69, 0x6e, 0x67, 0x5f, 0x64, 0x65, 0x66, 0x61,
  0x75, 0x6c, 0x74, 0x5f, 0x69, 0x6e, 0x70, 0x75, 0x74, 0x5f, 0x6c, 0x61,
  0x79, 0x65, 0x72, 0x5f, 0x36, 0x3a, 0x30, 0x00, 0x02, 0x00, 0x00, 0x00,
  0x01, 0x00, 0x00, 0x00, 0x09, 0x00, 0x00, 0x00, 0x02, 0x00, 0x00, 0x00,
  0x20, 0x00, 0x00, 0x00, 0x04, 0x00, 0x00, 0x00, 0xf4, 0xff, 0xff, 0xff,
  0x19, 0x00, 0x00, 0x00, 0x00, 0x00, 0x00, 0x19, 0x0c, 0x00, 0x0c, 0x00,
  0x0b, 0x00, 0x00, 0x00, 0x00, 0x00, 0x04, 0x00, 0x0c, 0x00, 0x00, 0x00,
  0x09, 0x00, 0x00, 0x00, 0x00, 0x00, 0x00, 0x09
};
unsigned int model_tflite_len = sizeof(model_tflite);
